{
  "version": "1.0",
  "truncation": null,
  "padding": null,
  "added_tokens": [
    {
      "id": 70000,
      "content": "<|endoftext|>",
      "single_word": false,
      "lstrip": false,
      "rstrip": false,
      "normalized": false,
      "special": true
    },
    {
      "id": 70001,
      "content": "<fim_prefix>",
      "single_word": false,
      "lstrip": false,
      "rstrip": false,
      "normalized": false,
      "special": true
    },
    {
      "id": 70002,
      "content": "<fim_middle>",
      "single_word": false,
      "lstrip": false,
      "rstrip": false,
      "normalized": false,
      "special": true
    },
    {
      "id": 70003,
      "content": "<fim_suffix>",
      "single_word": false,
      "lstrip": false,
      "rstrip": false,
      "normalized": false,
      "special": true
    },
    {
      "id": 70004,
      "content": "<fim_pad>",
      "single_word": false,
      "lstrip": false,
      "rstrip": false,
      "normalized": false,
      "special": true
    },
    {
      "id": 70005,
      "content": "<filename>",
      "single_word": false,
      "lstrip": false,
      "rstrip": false,
      "normalized": false,
      "special": true
    },
    {
      "id": 70006,
      "content": "<gh_stars>",
      "single_word": false,
      "lstrip": false,
      "rstrip": false,
      "normalized": false,
      "special": true
    },
    {
      "id": 70007,
      "content": "<issue_start>",
      "single_word": false,
      "lstrip": false,
      "rstrip": false,
      "normalized": false,
      "special": true
    },
    {
      "id": 70008,
      "content": "<issue_comment>",
      "single_word": false,
      "lstrip": false,
      "rstrip": false,
      "normalized": false,
      "special": true
    },
    {
      "id": 70009,
      "content": "<issue_closed>",
      "single_word": false,
      "lstrip": false,
      "rstrip": false,
      "normalized": false,
      "special": true
    },
    {
      "id": 70010,
      "content": "<jupyter_start>",
      "single_word": false,
      "lstrip": false,
      "rstrip": false,
      "normalized": false,
      "special": true
    },
    {
      "id": 70011,
      "content": "<jupyter_text>",
      "single_word": false,
      "lstrip": false,
      "rstrip": false,
      "normalized": false,
      "special": true
    },
    {
      "id": 70012,
      "content": "<jupyter_code>",
      "single_word": false,
      "lstrip": false,
      "rstrip": false,
      "normalized": false,
      "special": true
    },
    {
      "id": 70013,
      "content": "<jupyter_output>",
      "single_word": false,
      "lstrip": false,
      "rstrip": false,
      "normalized": false,
      "special": true
    },
    {
      "id": 70014,
      "content": "<empty_output>",
      "single_word": false,
      "lstrip": false,
      "rstrip": false,
      "normalized": false,
      "special": true
    },
    {
      "id": 70015,
      "content": "<commit_before>",
      "single_word": false,
      "lstrip": false,
      "rstrip": false,
      "normalized": false,
      "special": true
    },
    {
      "id": 70016,
      "content": "<commit_msg>",
      "single_word": false,
      "lstrip": false,
      "rstrip": false,
      "normalized": false,
      "special": true
    },
    {
      "id": 70017,
      "content": "<commit_after>",
      "single_word": false,
      "lstrip": false,
      "rstrip": false,
      "normalized": false,
      "special": true
    },
    {
      "id": 70018,
      "content": "<reponame>",
      "single_word": false,
      "lstrip": false,
      "rstrip": false,
      "normalized": false,
      "special": true
    }
  ],
  "normalizer": null,
  "pre_tokenizer": {
    "type": "Sequence",
    "pretokenizers": [
      {
        "type": "Digits",
        "individual_digits": true
      },
      {
        "type": "ByteLevel",
        "add_prefix_space": false,
        "trim_offsets": true,
        "use_regex": true
      }
    ]
  },
  "post_processor": null,
  "decoder": {
    "type": "ByteLevel",
    "add_prefix_space": true,
    "trim_offsets": true,
    "use_regex": true
  },
  "model": {
    "type": "BPE",
    "dropout": null,
    "unk_token": null,
    "continuing_subword_prefix": null,
    "end_of_word_suffix": null,
    "fuse_unk": false,
    "byte_fallback": false,
    "vocab": {
      "æ½»": 0,
      "æ¶ģ": 1,
      "ïĴĻ": 2,
      "amily": 3,
      "facebook": 4,
      "Ġ--></": 5,
      "êĩ¨": 6,
      "'},": 7,
      "urchase": 8,
      "å¼ķ": 9,
      "çİĨ": 10,
      "Ġ())": 11,
      "Thank": 12,
      "è¯µ": 13,
      "ç¢Ħ": 14,
      "ç®¿": 15,
      "interpol": 16,
      "ç£Ĺ": 17,
      "Â£": 18,
      "ðłĿ¹": 19,
      "čĊĠĠĠĠ": 20,
      "Copy": 21,
      "Ġlogin": 22,
      "éĢīæĭ©": 23,
      "Æľ": 24,
      "ã¬¿": 25,
      "Ġfilters": 26,
      "UES": 27,
      "Ġproof": 28,
      "æº¼": 29,
      "åĹ¢": 30,
      "æĴ¸": 31,
      "ginx": 32,
      "Da": 33,
      "íĽ¼": 34,
      "ĠDocumentation": 35,
      "é©ĺ": 36,
      "lir": 37,
      "åĤ¼": 38,
      "å¼ķé¢Ĩ": 39,
      "Keyword": 40,
      "Ú«": 41,
      "Ð¸Ð·": 42,
      "xce": 43,
      "ê¼Ń": 44,
      "åħ¬ç¤º": 45,
      "ĠLicense": 46,
      "office": 47,
      "Ġdims": 48,
      "çĳĹ": 49,
      "urs": 50,
      ";//": 51,
      "é£±": 52,
      "à·ħ": 53,
      "ë´ĥ": 54,
      "é±´": 55,
      "áĦİ": 56,
      "Ī": 57,
      "æ¼¤": 58,
      "éıħ": 59,
      "gi": 60,
      "Ġ))": 61,
      "ê°Ī": 62,
      "ðŁĵ¶": 63,
      "ĠTIM": 64,
      "ĠMaps": 65,
      "USAGE": 66,
      "ðĵĢ«": 67,
      "è·Į": 68,
      "åµł": 69,
      "èĦ±ç¦»": 70,
      "fe": 71,
      "Ġknowledge": 72,
      "afb": 73,
      "à¼»": 74,
      "çİģ": 75,
      "(-": 76,
      "è°ľ": 77,
      "åļ§": 78,
      "çĵµ": 79,
      "()\"": 80,
      "å¼¦": 81,
      "Translator": 82,
      "éĭ©": 83,
      "ÃĮ": 84,
      "êĭ": 85,
      "é½¦": 86,
      "etur": 87,
      "æĿ¢": 88,
      "éĢĺ": 89,
      "ìľĶ": 90,
      "ĠMIN": 91,
      "ðłĶ½": 92,
      "does": 93,
      "çļĦåİĨåı²": 94,
      "çģĨ": 95,
      "å¬ĩ": 96,
      "Ġ\":": 97,
      "á»ģ": 98,
      "midine": 99,
      "êĬ¸": 100,
      "LENGTH": 101,
      "Ġgeo": 102,
      "DllImport": 103,
      "jÄħ": 104,
      "spond": 105,
      "transforms": 106,
      "PIX": 107,
      "éĹ©": 108,
      "éĺĥ": 109,
      "éĩĬæĶ¾": 110,
      "çĢĲ": 111,
      "ä¸ĵæ³¨": 112,
      "ĠMicrosoft": 113,
      "çļĦåı¯": 114,
      "Ġ-=": 115,
      "ç°©": 116,
      "anie": 117,
      "plural": 118,
      "ex": 119,
      "Ġversion": 120,
      "gle": 121,
      "á»Ń": 122,
      "Sty": 123,
      "attempt": 124,
      "éĪĬ": 125,
      "åķ¤éħĴ": 126,
      "çıģ": 127,
      "éŀ²": 128,
      "æģģ": 129,
      "ä½łçŁ¥éģĵ": 130,
      "è£®": 131,
      "ç¼ģ": 132,
      "è¼Į": 133,
      "aster": 134,
      "æ®º": 135,
      "Ġgulp": 136,
      "èĤ·": 137,
      "áĲµ": 138,
      "op": 139,
      "xsl": 140,
      "çļĦåıĺ": 141,
      "APPEND": 142,
      "readFileSync": 143,
      "oci": 144,
      "ÍĤ": 145,
      "èĦº": 146,
      "ä¸įä½Ĩ": 147,
      "MA": 148,
      "åľŃ": 149,
      "ssa": 150,
      "èĥ±": 151,
      "////////////////////////": 152,
      "done": 153,
      "ĠTextField": 154,
      "è¹Ĭ": 155,
      "icky": 156,
      "çħ³": 157,
      "èĴĻ": 158,
      "å¤Ł": 159,
      "éĽĮ": 160,
      "ä¾Ľç»Ļ": 161,
      "æ£¹": 162,
      "train": 163,
      "çĤĻ": 164,
      "æ´ħ": 165,
      "ä¾·": 166,
      "cov": 167,
      "Software": 168,
      "](": 169,
      "âĢĵâĢĵ": 170,
      "é¦ª": 171,
      "áĥĵ": 172,
      "àªĦ": 173,
      "JL": 174,
      "ire": 175,
      "èĬļ": 176,
      "è¾®": 177,
      "âĻ¥": 178,
      "ç¬¡": 179,
      "ë³ı": 180,
      "Ġplain": 181,
      "çĵ¯": 182,
      "èĬ§": 183,
      "æ¡¶": 184,
      "Ġutilities": 185,
      "ioctl": 186,
      "DU": 187,
      "å´·": 188,
      "æº»": 189,
      "åĵĪå°Ķ": 190,
      "asta": 191,
      "æĺ¥": 192,
      "getItem": 193,
      "äĭ£": 194,
      "Ġownership": 195,
      "áĻ³": 196,
      "é°Ģ": 197,
      "ßļ": 198,
      "ðŁªĦ": 199,
      "Ġscrolling": 200,
      "ĠâĢ¢": 201,
      "UndefOr": 202,
      "çĶģ": 203,
      "Ġchange": 204,
      "èĵµ": 205,
      "à®Ģ": 206,
      "'\",": 207,
      "è´ģ": 208,
      "ĠWhen": 209,
      "å¹Ļ": 210,
      "<!---": 211,
      "åĨ¯": 212,
      "çĵı": 213,
      "èĦķ": 214,
      "ç¾Ķ": 215,
      "(\"&": 216,
      "Ġprevious": 217,
      "åĸ»": 218,
      "Req": 219,
      "æłµ": 220,
      "Manager": 221,
      "());": 222,
      "pop": 223,
      "ç½ĳ": 224,
      "æħĬ": 225,
      "weighted": 226,
      "Ġvid": 227,
      "ëıķ": 228,
      "åĻį": 229,
      "Ġbreak": 230,
      "InternalFrame": 231,
      "ĠTri": 232,
      "è½Ł": 233,
      "backtrace": 234,
      "SN": 235,
      "ç½ļæ¬¾": 236,
      "physical": 237,
      "ĠBucket": 238,
      "å¯¼æ¼Ķ": 239,
      "Ġdataset": 240,
      "ÉĬ": 241,
      "ams": 242,
      "àº»": 243,
      "Endpoint": 244,
      "Ġcdecl": 245,
      "áĶħ": 246,
      "ä»¶çļĦ": 247,
      "Broadcast": 248,
      "ïĢª": 249,
      "define": 250,
      "æģĹ": 251,
      "ĠPath": 252,
      "Ġadditional": 253,
      "åĩ°": 254,
      "ICES": 255,
      "googleapis": 256,
      "ARM": 257,
      "è¶·": 258,
      "čĊĠĠĠĠĠĠĠ": 259,
      "Regular": 260,
      "Ġprevents": 261,
      "áħ£": 262,
      "ðŁħĽ": 263,
      "åĻĭ": 264,
      "áĽļ": 265,
      "âļ¡": 266,
      "ĠÐ¢": 267,
      "ĠPriv": 268,
      "ĠâĢĻ": 269,
      "ĠDesigner": 270,
      "àµµ": 271,
      "sson": 272,
      "éĬ´": 273,
      "Ġau": 274,
      "é®į": 275,
      "BLACK": 276,
      "ä¿¬": 277,
      "ĠMarkdown": 278,
      "Wil": 279,
      "îĶ¬": 280,
      "èİ¤": 281,
      "èĪŃ": 282,
      "é®¦": 283,
      "éŁį": 284,
      "å°¿éħ¸": 285,
      "images": 286,
      "Sprite": 287,
      "åļ°": 288,
      "akes": 289,
      "ì§§": 290,
      "unsigned": 291,
      "solute": 292,
      "ç¤ºä¾ĭ": 293,
      "ç¤²": 294,
      "Yet": 295,
      "ëĪĩ": 296,
      "ĠMAX": 297,
      "æĴ´": 298,
      "âĪ´": 299,
      "áł·": 300,
      "ð¤¦": 301,
      "Boost": 302,
      "ïĮŁ": 303,
      "Ing": 304,
      "ots": 305,
      "REC": 306,
      "åª³": 307,
      "è¾¾æĪĲ": 308,
      "êĨħ": 309,
      "ĠFOL": 310,
      "é¡Ľ": 311,
      "åıįåºĶ": 312,
      "åĲĥèĭ¦": 313,
      "çł": 314,
      "JS": 315,
      "Ġaligned": 316,
      "æ¼Ŀ": 317,
      "é§ĳ": 318,
      "ATUR": 319,
      "æ³Ĥ": 320,
      "çķĤ": 321,
      "cul": 322,
      "-[": 323,
      "ĠjsonObject": 324,
      "è½º": 325,
      "è±·": 326,
      "FLOAT": 327,
      "æ¯į": 328,
      "îĪĪ": 329,
      "ĊĊĠĠĠĠĠĠĠ": 330,
      "Ġids": 331,
      "uncheck": 332,
      "èĢħ": 333,
      "Positive": 334,
      "æĲ¬": 335,
      "éĴ§": 336,
      "éİļ": 337,
      "æģ¡": 338,
      "ÄĿ": 339,
      "ĠImportError": 340,
      "cash": 341,
      "îļĴ": 342,
      "å¬İ": 343,
      "ĠExchange": 344,
      "é²ļ": 345,
      "toLowerCase": 346,
      "åĺ¢": 347,
      "åıĪè¦ģ": 348,
      "ëĹĦ": 349,
      "ðŁĨĵ": 350,
      "ĠMODIFY": 351,
      "åŁį": 352,
      "ãģķãĤĮãģŁ": 353,
      "HealthCheck": 354,
      "ELD": 355,
      "Advanced": 356,
      "ïıĪ": 357,
      "áŁį": 358,
      "ä¸Ģæµģ": 359,
      "ini": 360,
      "æĿĳçļĦ": 361,
      "ÑīÐ¸": 362,
      "êŃ": 363,
      "ðŁİª": 364,
      "è¿ĻçĤ¹": 365,
      "lut": 366,
      "ĠGe": 367,
      "Gi": 368,
      "æĽĮ": 369,
      "Symbols": 370,
      "åĵ¸": 371,
      "åįłæ¯Ķ": 372,
      "Balance": 373,
      "ë¦¼": 374,
      "è¬Į": 375,
      "å§ł": 376,
      "[_": 377,
      "çĬļ": 378,
      "Ġ'_": 379,
      "åħĪéĶĭ": 380,
      "è¢©": 381,
      "Ga": 382,
      "Ġrotate": 383,
      "Ġexperiments": 384,
      "åª³å¦ĩ": 385,
      "êł": 386,
      "à¶³": 387,
      "áĹ¦": 388,
      "ĠPredicate": 389,
      "æ³ķè§Ħ": 390,
      "å®īå¾½çľģ": 391,
      "Ġnos": 392,
      "æĺ¯çľŁçļĦ": 393,
      "ç»ĥèĲ¥": 394,
      "Pan": 395,
      "Last": 396,
      "Ġinf": 397,
      "ç³±": 398,
      "ç¬¬äºĮæ¬¡": 399,
      "äģ": 400,
      "îĿ«": 401,
      "èĭ¹æŀľ": 402,
      "Ġupdated": 403,
      "å·ł": 404,
      "çŃīæĥħåĨµ": 405,
      "SAT": 406,
      "áĮ½": 407,
      "Ġ!": 408,
      "îµ¾": 409,
      "ãµ²": 410,
      "çĮ§": 411,
      "ĠDecl": 412,
      "Ġuso": 413,
      "ĠPOS": 414,
      "?',": 415,
      "èķĭ": 416,
      "ç½ĳåıĭ": 417,
      "Ġunique": 418,
      "å¯¸": 419,
      "Ð·Ð¸": 420,
      "ĠMongo": 421,
      "êĳµ": 422,
      "NotEmpty": 423,
      "ê²¹": 424,
      "ç½": 425,
      "å¼Į": 426,
      "çģ«ç®Ń": 427,
      "chen": 428,
      "delay": 429,
      "ã¢ı": 430,
      "éĮŃ": 431,
      "att": 432,
      "Rope": 433,
      "æĺ¯æľĢ": 434,
      "åĵªä¸ª": 435,
      "ĠProto": 436,
      "TreeNode": 437,
      "åħŁ": 438,
      "âĺŀ": 439,
      "ĠCallback": 440,
      "é»¬": 441,
      "negative": 442,
      "æĹª": 443,
      "Embed": 444,
      "á¿¡": 445,
      "Ġfs": 446,
      "ê°ķ": 447,
      "Cf": 448,
      "çħĮ": 449,
      "ðŁķĬ": 450,
      "éªº": 451,
      "éĮİ": 452,
      "future": 453,
      "cion": 454,
      "ĠExecute": 455,
      "sandbox": 456,
      "æīŁ": 457,
      "å¿ĺ": 458,
      "æĥħåĨµ": 459,
      "Cam": 460,
      "æĤ²": 461,
      "å¾¬": 462,
      "Fatalf": 463,
      "á¾¹": 464,
      "çĥ§çĥ¤": 465,
      "ĠwireType": 466,
      "Individual": 467,
      "é¸ľ": 468,
      "èĶĬ": 469,
      "çĵŁ": 470,
      "Caps": 471,
      "å¸®å¿Ļ": 472,
      "é«´": 473,
      "âĪ§": 474,
      "áĴĳ": 475,
      "êµµ": 476,
      "ÙĶ": 477,
      "ÝĪ": 478,
      "ĠNg": 479,
      "îľĦ": 480,
      "å¾º": 481,
      "êĮĢ": 482,
      "TW": 483,
      "kov": 484,
      "ĠMQ": 485,
      "ARD": 486,
      "è´ł": 487,
      "beg": 488,
      "âī«": 489,
      "setCurrent": 490,
      "à¯Ĩ": 491,
      "Alex": 492,
      "Dao": 493,
      "çľį": 494,
      "åŃľ": 495,
      "åĹŃ": 496,
      "ä¹ĥèĩ³": 497,
      "Ġstyled": 498,
      "Chef": 499,
      "ç¯Ķ": 500,
      "áŁł": 501,
      "ä»ĸä»¬": 502,
      "æĬ¢": 503,
      "Ġì¶": 504,
      "OrFail": 505,
      "êĭ¦": 506,
      "çĿ¶": 507,
      "â°Ļ": 508,
      "ìķĪ": 509,
      "Ġld": 510,
      "ï¨": 511,
      "protoc": 512,
      "sizing": 513,
      "oggle": 514,
      "Ġmeant": 515,
      "åĮĹå¤§": 516,
      "DIM": 517,
      "éĮ¯": 518,
      "VEL": 519,
      "ĠBug": 520,
      "Ġ\"|": 521,
      "èĥ½åľ¨": 522,
      "dca": 523,
      "tape": 524,
      "Ġmount": 525,
      "ë±ħ": 526,
      "æİīäºĨ": 527,
      "ÔĹ": 528,
      "éĬ·": 529,
      "Ġlevels": 530,
      "ðŁ¤¿": 531,
      "ç·¿": 532,
      "æ®Ģ": 533,
      "ä½®": 534,
      "å¬Ł": 535,
      "åī¨": 536,
      "åĿ²": 537,
      "ãĢĩ": 538,
      "é±ķ": 539,
      "èª½": 540,
      "Permissions": 541,
      "èŁ©": 542,
      "çĽ®çļĦåľ°": 543,
      "éĥ³": 544,
      "èĻĩ": 545,
      "æ·Ĳ": 546,
      "ĠCo": 547,
      "Ġíķł": 548,
      "------------------------------------------------": 549,
      "ïİ²": 550,
      "Ġmapping": 551,
      "_\"+": 552,
      "ÖĽ": 553,
      "åį": 554,
      "Ġscala": 555,
      "######": 556,
      "ðŁİ¾": 557,
      "format": 558,
      "isArray": 559,
      "Ġcrc": 560,
      "ðŁİ³": 561,
      "()){": 562,
      "æĹĻ": 563,
      "âĨ§": 564,
      "âµį": 565,
      "editor": 566,
      "forge": 567,
      "ðŁ¢Ķ": 568,
      "Saving": 569,
      "Ġsklearn": 570,
      "sql": 571,
      "áº¡i": 572,
      "âī½": 573,
      "é½±": 574,
      "áŁĶ": 575,
      "èĽ³": 576,
      "ceso": 577,
      "ĠEng": 578,
      "áĬ§": 579,
      "ĠJohn": 580,
      "éĴĳ": 581,
      "éĩĳèŀį": 582,
      "Ġemails": 583,
      "å¤ªè¿ĩ": 584,
      "Ġ{-": 585,
      "k": 586,
      "Streaming": 587,
      "ĠSince": 588,
      "æµ·": 589,
      "éĻ¡": 590,
      "âľħ": 591,
      "FieldValue": 592,
      "irectory": 593,
      "Look": 594,
      "à·¡": 595,
      "Apps": 596,
      "strength": 597,
      "Ġunix": 598,
      "Approved": 599,
      "Item": 600,
      "ê¶Ĳ": 601,
      "îįĹ": 602,
      "glm": 603,
      "ĠGLenum": 604,
      "åĨ·": 605,
      "FILES": 606,
      "éĥ¨éĹ¨": 607,
      "Ġmanual": 608,
      "Ġimplementations": 609,
      "({});": 610,
      "çºĥ": 611,
      "åĮ¿": 612,
      "ä¦Ĭ": 613,
      "èĶĥ": 614,
      "æĭľçĻ»": 615,
      "}(": 616,
      "è¾ŀ": 617,
      "Ġbtn": 618,
      "Ġic": 619,
      "fort": 620,
      "pep": 621,
      "QT": 622,
      "æ»ª": 623,
      "å·¥èµĦ": 624,
      "ä½Ļ": 625,
      "ĊĊĠĠĠĠĠĠĠĠĠĠĠĠĠĠĠĠĠ": 626,
      "é²©": 627,
      "èª¡": 628,
      "Êī": 629,
      "Ġkill": 630,
      "èĸ¨": 631,
      "æĹ©æĻ¨": 632,
      "ä»Ĭå¹´çļĦ": 633,
      "çŁ³": 634,
      "çĭ¯": 635,
      "é¡ķ": 636,
      "Construct": 637,
      "á¹ĵ": 638,
      "ĠsÃ£o": 639,
      "appa": 640,
      "Ġstick": 641,
      "à¤Ŀ": 642,
      "alias": 643,
      "èŀ³": 644,
      "å½Ĳ": 645,
      "èĽª": 646,
      "ors": 647,
      "éĶł": 648,
      "æ¶¦": 649,
      "ç©¥": 650,
      "Ġdevices": 651,
      "uge": 652,
      "å¨Ĺ": 653,
      "ðŁ¦ĸ": 654,
      "ðĳ": 655,
      "è¢į": 656,
      "æĹ¥æĻļ": 657,
      "Distance": 658,
      "co": 659,
      "rient": 660,
      "ä¹ŁéľĢè¦ģ": 661,
      "Webhook": 662,
      "æĩŃ": 663,
      "ì©³": 664,
      "é½Ŀ": 665,
      "è¯ķ": 666,
      "ëĿĦ": 667,
      "àŃª": 668,
      "áļ¼": 669,
      "skin": 670,
      "DateFormat": 671,
      "atis": 672,
      "îĩ": 673,
      "Îª": 674,
      "åĪĳ": 675,
      "ä¾ĭå¦Ĥ": 676,
      "èĨ¦": 677,
      "Í¯": 678,
      ":',": 679,
      "íĤ¬": 680,
      "è¿ĩäºİ": 681,
      "onymous": 682,
      "Ã¶g": 683,
      "Gest": 684,
      "åħŀ": 685,
      "îłĶ": 686,
      "fef": 687,
      "ðŁıĻ": 688,
      "åĩĺ": 689,
      "ÐĻ": 690,
      "â¬ī": 691,
      ":\\\"\\\";": 692,
      "è«ĩ": 693,
      "Ġsamples": 694,
      "æļ´éĽ¨": 695,
      "îĮ": 696,
      "íĬ": 697,
      "nowledge": 698,
      "éĹ³": 699,
      "âĿ°": 700,
      "è·¿": 701,
      "æŃ®": 702,
      "æ¬©": 703,
      "ä¼ģä¸ļ": 704,
      "æĪĲçļĦ": 705,
      "çĨ³": 706,
      "çĶ·åıĭ": 707,
      "áİ¡": 708,
      "å·´": 709,
      "CBC": 710,
      "permalink": 711,
      "å®ŀéªĮå®¤": 712,
      "ä¨ĭ": 713,
      "ðĵĥŁ": 714,
      "LP": 715,
      "ä¸ĢæĹ¦": 716,
      "å·ŀçľģ": 717,
      "CRET": 718,
      "âŃĴ": 719,
      "Ġdp": 720,
      "Ġho": 721,
      "äĤ": 722,
      "Ġlast": 723,
      "ç£¯": 724,
      "ç¹ª": 725,
      "Jobs": 726,
      "åĤ¤": 727,
      "à§¨": 728,
      "îģĽ": 729,
      "indow": 730,
      "áĪŁ": 731,
      "æ·±åľ³å¸Ĥ": 732,
      "^^": 733,
      "Ö»": 734,
      "á¬®": 735,
      "á¹ļ": 736,
      "elim": 737,
      "Õ¥": 738,
      "ç¡±": 739,
      "çĽ´": 740,
      "îı¬": 741,
      "losses": 742,
      "Õ¢": 743,
      "çŁ²": 744,
      "æĥĽ": 745,
      "è¸Ķ": 746,
      "getData": 747,
      "é®Ģ": 748,
      "ob": 749,
      "ïĿ¯": 750,
      "labor": 751,
      "icates": 752,
      "Ġ'');": 753,
      "fields": 754,
      "Ġchapter": 755,
      "âľį": 756,
      "è°¿": 757,
      "arrays": 758,
      "ãĹ°": 759,
      "getRequest": 760,
      "Ġsearch": 761,
      "ĠCapt": 762,
      "utdown": 763,
      "îĤĶ": 764,
      "é¥Ľ": 765,
      "toList": 766,
      "Ġ])": 767,
      "åİ¾": 768,
      "ç¿ģ": 769,
      "Internals": 770,
      "dest": 771,
      "ritÃ¼Ã¼tsch": 772,
      "å¸«": 773,
      "åĲĮçŃī": 774,
      "ç®Ļ": 775,
      "à£": 776,
      "zend": 777,
      "îĬĨ": 778,
      "åļ¥": 779,
      "Metric": 780,
      "phabet": 781,
      "ĠæŁ¥": 782,
      "Í¥": 783,
      "çµ°": 784,
      "ENDPOINT": 785,
      "iterable": 786,
      "îļĺ": 787,
      "Ġpreview": 788,
      "è²«": 789,
      "ã´·": 790,
      "å°ĸ": 791,
      "å´Į": 792,
      "ç¾ł": 793,
      "ĠRobot": 794,
      "ãģĮãģĤ": 795,
      "Ġnearest": 796,
      "èĺĪ": 797,
      "amel": 798,
      "à²Ģ": 799,
      "è¿ħ": 800,
      "çĪ®": 801,
      "åİĤå®¶": 802,
      "boss": 803,
      "VV": 804,
      "Æ£": 805,
      "Ġexported": 806,
      "ĠSw": 807,
      "èĨ¥": 808,
      "Ġ{!!": 809,
      "elcome": 810,
      "ç®´": 811,
      "Obj": 812,
      "æļ¯": 813,
      "PURE": 814,
      "åĴ´": 815,
      "ãºħ": 816,
      "éĺŁ": 817,
      "Ġb": 818,
      "Ġ=\"": 819,
      "âĢº": 820,
      "Ġmind": 821,
      "variant": 822,
      "hints": 823,
      "Sr": 824,
      "ë²¤": 825,
      "âĹĳ": 826,
      "åİ¨æĪ¿": 827,
      "ëŁŃ": 828,
      "ĠSSH": 829,
      "â¬Ī": 830,
      "æ¦°": 831,
      "éģ¸æĬŀ": 832,
      "åľĳ": 833,
      "generators": 834,
      "é·Ĳ": 835,
      "ë§ĺ": 836,
      "letion": 837,
      "<!--": 838,
      "zeros": 839,
      "'),(": 840,
      "ä»¤": 841,
      "Verbose": 842,
      "ĠÐļ": 843,
      "indexed": 844,
      "çłº": 845,
      "áİł": 846,
      "````": 847,
      "Ġfan": 848,
      "î²ħ": 849,
      "Entry": 850,
      "éĽį": 851,
      "îļ¨": 852,
      "DEFINITION": 853,
      "Ġef": 854,
      "ëıĮ": 855,
      "Ġindexed": 856,
      "ðŁĲ": 857,
      "âĿĶ": 858,
      "å¿Ļ": 859,
      "prototype": 860,
      "Úİ": 861,
      "Ġarrays": 862,
      "éµ¡": 863,
      "Ġslave": 864,
      "èŀ§": 865,
      "çŁł": 866,
      "à§İ": 867,
      "è¾©": 868,
      "à½¼": 869,
      "nuget": 870,
      "ĠADC": 871,
      "èĶ«": 872,
      "æĹĬ": 873,
      "ïĽ": 874,
      "åĲ©": 875,
      "Õ©": 876,
      "Stop": 877,
      "è¿Ļæ¬¡": 878,
      "iness": 879,
      "currency": 880,
      "æį²": 881,
      "tegr": 882,
      "PROPERTY": 883,
      "ã¥": 884,
      "ðŁĮģ": 885,
      "åĨħå¤ĸ": 886,
      "Ġopening": 887,
      "ðªļ¥": 888,
      "ê³§": 889,
      "logging": 890,
      "æµĻæ±Ł": 891,
      "ç§»åĬ¨": 892,
      "uples": 893,
      "version": 894,
      "eng": 895,
      "aca": 896,
      "â¬ĺ": 897,
      "æŀ½": 898,
      "ç·ĥ": 899,
      "áĨĿ": 900,
      "stract": 901,
      "åĥİ": 902,
      "âĮł": 903,
      "Ġexpose": 904,
      "æµŃ": 905,
      "çĩĮ": 906,
      "éĺĨ": 907,
      "æĽ³": 908,
      "åįĹæĸ¹": 909,
      "ç»Ĥ": 910,
      "Weak": 911,
      "åļħ": 912,
      "acket": 913,
      "ç¹ļ": 914,
      "æŀį": 915,
      "íĮĮ": 916,
      "å´³": 917,
      "ä¸¥å³»": 918,
      "assignment": 919,
      "ĠRew": 920,
      "ðŁ¥ļ": 921,
      "æĩĭ": 922,
      "á¿¸": 923,
      "Ï¸": 924,
      "æĽ·": 925,
      "fatal": 926,
      "è»ĥ": 927,
      "áĥķ": 928,
      "éĢ©": 929,
      "ä¸Ģæĸ¹éĿ¢": 930,
      "fluid": 931,
      "'].": 932,
      "Window": 933,
      "Ġsector": 934,
      "Mont": 935,
      "éĹ¨åı£": 936,
      "lapsed": 937,
      "Ġui": 938,
      "jin": 939,
      "àº¶": 940,
      "VERB": 941,
      "å£Ĵ": 942,
      "ĠBackend": 943,
      "Inspect": 944,
      "mont": 945,
      "egu": 946,
      "ç¤Ħ": 947,
      "éıĽ": 948,
      "à°Ń": 949,
      "RenderTarget": 950,
      "\"]);": 951,
      "ÆĬ": 952,
      "çŃīçĿĢ": 953,
      "éĦ¿": 954,
      "Ġrandom": 955,
      "snapshot": 956,
      "åľº": 957,
      "standalone": 958,
      "RIDE": 959,
      "îĤ¡": 960,
      "setWindow": 961,
      "æħģ": 962,
      "åįģäºĶ": 963,
      "parsing": 964,
      "å¼ºåº¦": 965,
      "à¯": 966,
      "åİ¿æĶ¿": 967,
      "Autor": 968,
      "ðłĻ¶": 969,
      "ê°Ĵ": 970,
      "ä½įç½®": 971,
      "%\",": 972,
      "åĮ½": 973,
      "æŃ¶": 974,
      "âĸ§": 975,
      "ä¾Ŀæ¬¡": 976,
      "]-->": 977,
      "æ¢¦": 978,
      "ä½İè°ĥ": 979,
      "é±ı": 980,
      "Ġexecuting": 981,
      "ïĶ´": 982,
      "é«©": 983,
      "á»³": 984,
      "Instances": 985,
      "æ¶ĥ": 986,
      "Pt": 987,
      "éĤ³": 988,
      "ampaign": 989,
      "frontend": 990,
      "ĠARRAY": 991,
      "èĪ¥": 992,
      "ïĴ©": 993,
      "éĤ®æĶ¿": 994,
      "Ġfrom": 995,
      "âĻĩ": 996,
      "ïĳ¢": 997,
      "íĺ": 998,
      "Writing": 999,
      "éģĩè§ģ": 1000,
      "æľįè£ħ": 1001,
      "Ġclock": 1002,
      "ä»ª": 1003,
      "aha": 1004,
      "æ®µæĹ¶": 1005,
      "Ġentire": 1006,
      "á¹¨": 1007,
      "çĿ£å¯¼": 1008,
      "Naming": 1009,
      "Ġinterested": 1010,
      "è£±": 1011,
      "æ±ĤçļĦ": 1012,
      "Nu": 1013,
      "ĠInterruptedException": 1014,
      "éĽĤ": 1015,
      "îĮ¦": 1016,
      "â¦Ĩ": 1017,
      "ĠendTime": 1018,
      "ç¿ĥ": 1019,
      "Ġpane": 1020,
      "RESPONSE": 1021,
      "repl": 1022,
      "ãŀ¿": 1023,
      "æķ»": 1024,
      "ï£¿": 1025,
      "äīĽ": 1026,
      "Ġstack": 1027,
      "ç¦¶": 1028,
      "weet": 1029,
      "imal": 1030,
      "Producto": 1031,
      "æ£Ł": 1032,
      "Ġsigned": 1033,
      "Devices": 1034,
      "çŃĥ": 1035,
      "çĶ¨é¤Ĳ": 1036,
      "àŃŃ": 1037,
      "Ġactivation": 1038,
      "RV": 1039,
      "Ġli": 1040,
      "ados": 1041,
      "åĵĦ": 1042,
      "Ġsup": 1043,
      "åĺİ": 1044,
      "çµļ": 1045,
      "ç§ĺå¯Ĩ": 1046,
      "ĠSTRING": 1047,
      "ĠPred": 1048,
      "adam": 1049,
      "Ġbrightness": 1050,
      "ðŁķļ": 1051,
      "ðł±": 1052,
      "Ġrewrite": 1053,
      "èĻ£": 1054,
      "ðĵĢ¬": 1055,
      "å¦Ĥæ¶ī": 1056,
      "âģł": 1057,
      "ê¾»": 1058,
      "å¥ķ": 1059,
      "ä¸¾åĬŀ": 1060,
      "åĸº": 1061,
      "è¥Ĭ": 1062,
      "æŀľ": 1063,
      "è©½": 1064,
      "ëĪł": 1065,
      "Negative": 1066,
      "ĠOrgan": 1067,
      "InterruptedException": 1068,
      "auf": 1069,
      "èįĽ": 1070,
      "Ġalternate": 1071,
      "àª¹": 1072,
      "çºķ": 1073,
      "closest": 1074,
      "Ġåħ¶": 1075,
      "ie": 1076,
      "OperationException": 1077,
      "achines": 1078,
      "çĶ¨æ°´": 1079,
      "çĺł": 1080,
      "ç¦ŀ": 1081,
      "èĸĺ": 1082,
      "å±Ļ": 1083,
      "ified": 1084,
      "áį¢": 1085,
      "Ġworld": 1086,
      "è½ĭ": 1087,
      "èĶĨ": 1088,
      "cgi": 1089,
      "\"#": 1090,
      "Ó®": 1091,
      "é¨¼": 1092,
      "åĩłä¸ªæľĪ": 1093,
      "èĮ»": 1094,
      "onto": 1095,
      "Works": 1096,
      "èĿ": 1097,
      "pad": 1098,
      "Ãł": 1099,
      "Ez": 1100,
      "ĠFunctions": 1101,
      "YG": 1102,
      "éĨ¯": 1103,
      "Ġunsafe": 1104,
      "vertx": 1105,
      "èķĴ": 1106,
      "roc": 1107,
      "çĹĹ": 1108,
      "âĬļ": 1109,
      "ê¡": 1110,
      "ê¦Ľ": 1111,
      "äĽ": 1112,
      "ĠCommunication": 1113,
      "ĠIP": 1114,
      "æħĭ": 1115,
      "å°Į": 1116,
      "Ġbene": 1117,
      "ÙĮ": 1118,
      "Ġactivate": 1119,
      "bb": 1120,
      "èŀĤ": 1121,
      "éĥĲ": 1122,
      "èĮļ": 1123,
      "âĤ": 1124,
      "ĠWebSocket": 1125,
      "Ġfon": 1126,
      "LIED": 1127,
      "îĢ±": 1128,
      "Process": 1129,
      "åªĿ": 1130,
      "æ³½": 1131,
      "wide": 1132,
      "à²´": 1133,
      "Ġinto": 1134,
      "ĠSecurity": 1135,
      "Tim": 1136,
      "ĠUses": 1137,
      "collection": 1138,
      "BadRequest": 1139,
      "èĿĦ": 1140,
      "Ġpromp": 1141,
      "å¢Ī": 1142,
      "REEN": 1143,
      "wc": 1144,
      "ãģ§": 1145,
      "èĴº": 1146,
      "Proc": 1147,
      "äºĿ": 1148,
      "´": 1149,
      "riday": 1150,
      ";'": 1151,
      "å¤ļæ¬¡": 1152,
      "VRTX": 1153,
      "èĦ¶": 1154,
      "çłĹ": 1155,
      "è®Ľ": 1156,
      "Ġfeat": 1157,
      "ïļĮ": 1158,
      "hew": 1159,
      "éħ¾": 1160,
      "èĸı": 1161,
      "ĠDone": 1162,
      "plotlib": 1163,
      "à¶·": 1164,
      "çĻ³": 1165,
      "çĮł": 1166,
      "hn": 1167,
      "lace": 1168,
      "é£¾": 1169,
      "éį¬": 1170,
      "åĨŁ": 1171,
      "éĮµ": 1172,
      "à´µ": 1173,
      "STRUCTURE": 1174,
      "èĩĻ": 1175,
      "ĠRemoves": 1176,
      "å¥³å£«": 1177,
      "å¯Ĥå¯ŀ": 1178,
      "Ġrelevant": 1179,
      "åģĦ": 1180,
      "Checks": 1181,
      "çĶ³æĬ¥": 1182,
      "ç®ľ": 1183,
      "eor": 1184,
      "story": 1185,
      "å·«": 1186,
      "ÄŁÄ±": 1187,
      "å±Ĭåħ¨": 1188,
      "æŀľæľī": 1189,
      "éĩĦ": 1190,
      "Ġresize": 1191,
      "âīĢ": 1192,
      "îłĬ": 1193,
      "Automatic": 1194,
      "èĬº": 1195,
      "à´Ĭ": 1196,
      "å®ĺæĸ¹": 1197,
      "çĢĬ": 1198,
      "é¸ĸ": 1199,
      "ResourceManager": 1200,
      "è¿": 1201,
      "Ġpotentially": 1202,
      "Ġprobe": 1203,
      "ĠIMPLIED": 1204,
      "Ġimports": 1205,
      "ĠTwitter": 1206,
      "âŀ½": 1207,
      "reem": 1208,
      "æµ£": 1209,
      "à«§": 1210,
      "Ġdoc": 1211,
      "å¼ķæĵİ": 1212,
      "áº¼": 1213,
      "ç·Ľ": 1214,
      "collapsed": 1215,
      "îĢŃ": 1216,
      "åļ¿": 1217,
      "Ä·": 1218,
      "å¹Ľ": 1219,
      "Milliseconds": 1220,
      "čĊĉĉ": 1221,
      "å£ĥ": 1222,
      "ĠNu": 1223,
      "Ġgcc": 1224,
      "è±Ł": 1225,
      "ĠPublish": 1226,
      "à¡Ĳ": 1227,
      "è¿½ç©¶": 1228,
      "æļŀ": 1229,
      "è®¤è¯ģ": 1230,
      "ĠRole": 1231,
      "low": 1232,
      "ß¶": 1233,
      "zoom": 1234,
      "èĶĮ": 1235,
      "èĭĳ": 1236,
      "éĹħ": 1237,
      "åŁ¹åħ»": 1238,
      "Ġ/*!": 1239,
      "æį®æĤī": 1240,
      "ðŁĶ·": 1241,
      "è¿¨": 1242,
      "âīĽ": 1243,
      "çİ¯ä¿Ŀ": 1244,
      "ç§ĳ": 1245,
      "åľ½": 1246,
      "Ġterm": 1247,
      "SUP": 1248,
      "ENUM": 1249,
      "company": 1250,
      "some": 1251,
      "Ġtorch": 1252,
      "ira": 1253,
      "æĪĸèĢħ": 1254,
      "Ûľ": 1255,
      "]({{": 1256,
      "å£ĭ": 1257,
      "å¸·": 1258,
      "åĲİåĨį": 1259,
      "ãĢħ": 1260,
      "Wifi": 1261,
      "Ġ__": 1262,
      "ðŁĽ¸": 1263,
      "Æ§": 1264,
      "problems": 1265,
      "éģĹ": 1266,
      "éħ®": 1267,
      "Ġuk": 1268,
      "ÛĨ": 1269,
      "Ġthree": 1270,
      "ä¿ĿæĬ¤": 1271,
      "æľīåı¯": 1272,
      "ðŁİł": 1273,
      "âı¦": 1274,
      "è®¾æľī": 1275,
      "åĬ¨è½¦": 1276,
      "æł¡éķ¿": 1277,
      "TTL": 1278,
      "é¬ļ": 1279,
      "Task": 1280,
      "æĺ¯åĲ¦": 1281,
      "Ġgas": 1282,
      "ì²¼": 1283,
      "æľŁå¾Ĵ": 1284,
      "æľīå¤ļ": 1285,
      "à±": 1286,
      "Ġembed": 1287,
      "â¢": 1288,
      "Ġdensity": 1289,
      "à©Ĭ": 1290,
      "èĶħ": 1291,
      "ĠGLfloat": 1292,
      "Ġsuggestions": 1293,
      "è¥ķ": 1294,
      ",),": 1295,
      "ç£ŀ": 1296,
      "maps": 1297,
      "ä¸įåı¯èĥ½": 1298,
      "][": 1299,
      "åªĸ": 1300,
      "à¯ļ": 1301,
      "guidelines": 1302,
      "âĻº": 1303,
      "âŁ©": 1304,
      "quation": 1305,
      "Åİ": 1306,
      "Features": 1307,
      "çĺĨ": 1308,
      "åįıä¼ļ": 1309,
      "ĠCREATE": 1310,
      "ĊĠĠĠĠĠĠĠĠĠĠĠĠĠĠĠĠĠĠĠĠĠĠĠĠĠĠĠĠĠĠĠĠĠĠĠĠĠĠĠĠ": 1311,
      "è¿»": 1312,
      "ASE": 1313,
      "çªĤ": 1314,
      "éªĥ": 1315,
      "åħ¨ä¸ĸ": 1316,
      "UBE": 1317,
      "Ġ$.": 1318,
      "Metrics": 1319,
      "XM": 1320,
      "Ġbcm": 1321,
      "ert": 1322,
      "POP": 1323,
      "æĺĮ": 1324,
      "íĤ´": 1325,
      "DAO": 1326,
      "Ö´": 1327,
      "Document": 1328,
      "ĊĊĉĉĉĉĉĉ": 1329,
      "çľ´": 1330,
      "êĿ»": 1331,
      "Ġcla": 1332,
      "Ġputting": 1333,
      "è¸Ľ": 1334,
      "IMAGE": 1335,
      "ĠFirst": 1336,
      "é¸«": 1337,
      "LECT": 1338,
      "sTo": 1339,
      "æĲ¦": 1340,
      "quantitativo": 1341,
      ".#": 1342,
      "ðŁľĦ": 1343,
      "Ġcontinue": 1344,
      "Û±": 1345,
      "éľ®": 1346,
      "ĠIL": 1347,
      "æ¨±": 1348,
      "çİĪ": 1349,
      "Ġamd": 1350,
      "su": 1351,
      "èĻļ": 1352,
      "ĠNJ": 1353,
      "è¥": 1354,
      "ół": 1355,
      "çįº": 1356,
      "uj": 1357,
      "è¸ª": 1358,
      "ã»ľ": 1359,
      "->{$": 1360,
      "Ó¦": 1361,
      "è®ĥ": 1362,
      "êĩī": 1363,
      "çłĶ": 1364,
      "enti": 1365,
      "Ġcolo": 1366,
      "êģ®": 1367,
      "ã´ĩ": 1368,
      "ê¯ħ": 1369,
      "æ¨¨": 1370,
      "æ¶£": 1371,
      "ĠdonnÃ©es": 1372,
      "SUR": 1373,
      "URE": 1374,
      "åħ³æĢĢ": 1375,
      "exus": 1376,
      "Ġenemy": 1377,
      "çīı": 1378,
      "adir": 1379,
      "ðŁİ²": 1380,
      "ä¸ªå°ıæĹ¶": 1381,
      "fu": 1382,
      "ÙĽ": 1383,
      "åŃ¨": 1384,
      "çĳ¦": 1385,
      "ĠUDP": 1386,
      "ĠFriend": 1387,
      "Ġnear": 1388,
      "::<": 1389,
      "èį£": 1390,
      "æ²Ħ": 1391,
      "áħ¥": 1392,
      "ê²ª": 1393,
      "Êª": 1394,
      "éºĿ": 1395,
      "âı°": 1396,
      "ĠBu": 1397,
      "Flip": 1398,
      "éº¯": 1399,
      "çĶ®": 1400,
      "áĢ§": 1401,
      "Ġprotect": 1402,
      "Ġindicates": 1403,
      "uman": 1404,
      "éŀ®": 1405,
      "ç»½æĶ¾": 1406,
      "Ġwhen": 1407,
      "æº¯": 1408,
      "ã¢": 1409,
      "çĺĺ": 1410,
      "æĴĻ": 1411,
      "ĠEND": 1412,
      "Ġstarting": 1413,
      "engan": 1414,
      "assign": 1415,
      "Hey": 1416,
      "US": 1417,
      "éĳ¦": 1418,
      "æ¥©": 1419,
      ",\\": 1420,
      "â¬¨": 1421,
      "æİ¥è¿ĳ": 1422,
      "ĠĊĠĠĠ": 1423,
      "STAND": 1424,
      "åĤª": 1425,
      "ç¾İåĽ½": 1426,
      "çľ¢": 1427,
      "æĴ¦": 1428,
      "wv": 1429,
      "æ±©": 1430,
      "æĿĥçĽĬ": 1431,
      "éĤ¡": 1432,
      "é·¼": 1433,
      "ims": 1434,
      "ä¾ł": 1435,
      "íĲĪ": 1436,
      "balance": 1437,
      "åĻļ": 1438,
      "Environment": 1439,
      "æĽĭ": 1440,
      "çºŃ": 1441,
      "æ³ı": 1442,
      "atable": 1443,
      "scp": 1444,
      "Ġcast": 1445,
      "Ġdescriptor": 1446,
      "æŀĬ": 1447,
      "ssh": 1448,
      "éľ²": 1449,
      "æ°ĳèĲ¥": 1450,
      "ç°į": 1451,
      "Layout": 1452,
      "Before": 1453,
      "Ôİ": 1454,
      "éĢļçĶ¨": 1455,
      "æİ¥ä¸ĭæĿ¥": 1456,
      "åĪĩå®ŀ": 1457,
      "äĳī": 1458,
      "aks": 1459,
      "åł´": 1460,
      "bd": 1461,
      "ç»Ħç»ĩéĥ¨": 1462,
      "Open": 1463,
      "ant": 1464,
      "MASK": 1465,
      "ĠUb": 1466,
      "åĲĮæĦı": 1467,
      "RNA": 1468,
      "æ®Ŀ": 1469,
      "ëĤľ": 1470,
      "\"));": 1471,
      "services": 1472,
      "è¦ģæĥ³": 1473,
      "'s": 1474,
      "ality": 1475,
      "Ð¿": 1476,
      "ithmetic": 1477,
      "ĠCallable": 1478,
      "èĥł": 1479,
      "åĭ¬": 1480,
      "èĪĨ": 1481,
      "ãģ²": 1482,
      "POSE": 1483,
      "æĪ¢": 1484,
      "spacer": 1485,
      "îĬĹ": 1486,
      "ĠMaybe": 1487,
      "ç´«": 1488,
      "ìłĲ": 1489,
      "ctl": 1490,
      "éĢļä¿¡": 1491,
      "åįİ": 1492,
      "åĽ°": 1493,
      "åĬ²": 1494,
      "éªĬ": 1495,
      "Ġpermission": 1496,
      "handler": 1497,
      "É¿": 1498,
      "çĹĢ": 1499,
      "Ġvr": 1500,
      "restrict": 1501,
      "ĠLP": 1502,
      "ĠPlot": 1503,
      "èħ¬": 1504,
      "åħħçĶµ": 1505,
      "FontSize": 1506,
      "re": 1507,
      "\"=>\"": 1508,
      "ipeline": 1509,
      "è¾¯": 1510,
      "è§»": 1511,
      "Selector": 1512,
      "AC": 1513,
      "Constant": 1514,
      "Ġinstanceof": 1515,
      "irs": 1516,
      "è¸Ĥ": 1517,
      "æ°ĳçļĦ": 1518,
      "\"][\"": 1519,
      "éŀľ": 1520,
      "DG": 1521,
      "aces": 1522,
      "Slide": 1523,
      "î¢Ķ": 1524,
      "*****": 1525,
      "ĠkB": 1526,
      "ĠREAD": 1527,
      "æĨ¬": 1528,
      "ÑĤÑĮ": 1529,
      "à¬º": 1530,
      "ê©": 1531,
      "íĹĪ": 1532,
      "ĊĉĉĠĠĠĠ": 1533,
      "RSTMGR": 1534,
      "áįł": 1535,
      "çĸĳ": 1536,
      "çŁ¸": 1537,
      "à¿Ī": 1538,
      "éŃ¯": 1539,
      "å«º": 1540,
      "Ë§": 1541,
      "paration": 1542,
      "âĽº": 1543,
      "åŃĹç¬¦": 1544,
      "é±ł": 1545,
      "êħª": 1546,
      "ĠSkip": 1547,
      "âīİ": 1548,
      "ä¹Ĭ": 1549,
      "__).": 1550,
      "èĿĻ": 1551,
      "æĹ¨åľ¨": 1552,
      "Ð±Ñĭ": 1553,
      "àŃ±": 1554,
      "ä»Ł": 1555,
      "erical": 1556,
      "ä¸¥éĩį": 1557,
      "Ġobjective": 1558,
      "could": 1559,
      "DROP": 1560,
      "ç®İ": 1561,
      "åħĪè¡Į": 1562,
      "ĠOTHERWISE": 1563,
      "cell": 1564,
      "qs": 1565,
      "èĭĹ": 1566,
      "NL": 1567,
      "å°ıåŃ¦": 1568,
      "ÒĤ": 1569,
      "æıĲåĩºçļĦ": 1570,
      "âĨĹ": 1571,
      "refix": 1572,
      "scan": 1573,
      "hort": 1574,
      "May": 1575,
      "å¥ŀ": 1576,
      "èĺĴ": 1577,
      "åĢºåĬ¡": 1578,
      "å¯¹å¾ħ": 1579,
      "çĿ¯": 1580,
      "åħ¬": 1581,
      "æ½ĵ": 1582,
      "íĢ¸": 1583,
      "JU": 1584,
      "ì½¥": 1585,
      "à¦¿": 1586,
      "îĳ": 1587,
      "æµĭéĩı": 1588,
      "cve": 1589,
      "istical": 1590,
      "à¸ĸ": 1591,
      "çĨĵ": 1592,
      "éŀĲ": 1593,
      "ç¢¨": 1594,
      "Ã©": 1595,
      "olicies": 1596,
      "Þķ": 1597,
      "æīĻ": 1598,
      "éīĴ": 1599,
      "ç¯®çĲĥ": 1600,
      "à¼½": 1601,
      "Ġwidth": 1602,
      "gameObject": 1603,
      "ì½§": 1604,
      "çĤ¤": 1605,
      "ãĥĭ": 1606,
      "éĸĳ": 1607,
      "åīįåĪĹ": 1608,
      "similar": 1609,
      "à«¬": 1610,
      "Blur": 1611,
      "ïıĬ": 1612,
      "å®ľ": 1613,
      "ïĦī": 1614,
      "áŁĽ": 1615,
      "èľī": 1616,
      "Ġ#'": 1617,
      "ïľ": 1618,
      "å¨ĺ": 1619,
      "áĭļ": 1620,
      "ëĮ": 1621,
      "ulia": 1622,
      "éĸĸ": 1623,
      "ç¥£": 1624,
      "hadoop": 1625,
      "ë§´": 1626,
      "Ġstats": 1627,
      "ðŁķ¹": 1628,
      "èİ³": 1629,
      "è®Ńç»ĥèĲ¥": 1630,
      "ïĤ": 1631,
      "ê¦²": 1632,
      "hp": 1633,
      "è¡ĢèĦĤ": 1634,
      "ä¸įéĶĻ": 1635,
      "èļ±": 1636,
      "î©Ĩ": 1637,
      "è£»": 1638,
      "Ġ`$": 1639,
      "å®¾": 1640,
      "æľīæīĢ": 1641,
      "Retry": 1642,
      "mono": 1643,
      "èł¸": 1644,
      "ïĮĴ": 1645,
      "NotNull": 1646,
      "åĤģ": 1647,
      "ORY": 1648,
      "åĵģ": 1649,
      "PARAMETER": 1650,
      "ç´Ľ": 1651,
      "Ġsuppress": 1652,
      "è¿Ľ": 1653,
      "å¤§é£İ": 1654,
      "Ġlocations": 1655,
      "åĭĩäºİ": 1656,
      "ĠCamera": 1657,
      "å»·": 1658,
      "Ġfilled": 1659,
      "ðŁı¼": 1660,
      "ðŁĺ¤": 1661,
      "Ġmil": 1662,
      "èŃģ": 1663,
      "Ġdays": 1664,
      "'_": 1665,
      "îħŁ": 1666,
      "æ²§": 1667,
      "ĠArgument": 1668,
      "à´¨": 1669,
      "Products": 1670,
      "ĠåĪĽå»º": 1671,
      "èķļ": 1672,
      "åı¯èĥ½æĺ¯": 1673,
      "çĥº": 1674,
      "à¦Ń": 1675,
      "ä¸ĸéĹ´": 1676,
      "Ġassert": 1677,
      "qty": 1678,
      "Ġsimplify": 1679,
      "éį½": 1680,
      "èĿĽ": 1681,
      "ice": 1682,
      "à´¦": 1683,
      "Mutation": 1684,
      "áŁĹ": 1685,
      "éħįåĽ¾": 1686,
      "encil": 1687,
      "ĠÂ°": 1688,
      "æ§¤": 1689,
      "æĶŀ": 1690,
      "å¯Į": 1691,
      "ĠContinu": 1692,
      "åļ£": 1693,
      "PREFERRED": 1694,
      "ç¼ĳ": 1695,
      "ðŁĲ°": 1696,
      "oog": 1697,
      "êĥĺ": 1698,
      "à¤¹": 1699,
      "Chart": 1700,
      "ĠCould": 1701,
      "idf": 1702,
      "å§Ķ": 1703,
      "TAB": 1704,
      "é©Ģ": 1705,
      "Í«": 1706,
      "àºĩ": 1707,
      "ç¤": 1708,
      "çĬ²": 1709,
      "}": 1710,
      "èĽ§": 1711,
      "æ²¡äºĨ": 1712,
      "à¨ª": 1713,
      "istrator": 1714,
      "æĥ³èµ·": 1715,
      "raises": 1716,
      "å³Ģ": 1717,
      "äºħ": 1718,
      "Also": 1719,
      "cljs": 1720,
      "Ġtreat": 1721,
      "ĠðŁĳį": 1722,
      "çĤ¡": 1723,
      "èĿ¤": 1724,
      "Ġshare": 1725,
      "åĻī": 1726,
      "å¸ī": 1727,
      "à¶º": 1728,
      "éīļ": 1729,
      "èĸİ": 1730,
      "ä´Ļ": 1731,
      "æ¡¡": 1732,
      "è¨ĺ": 1733,
      "éĦ·": 1734,
      "æİĿ": 1735,
      "Ð»ÑİÑĩ": 1736,
      "åŁª": 1737,
      "æĥ³åĪ°": 1738,
      "é¦¶": 1739,
      "êĨ¿": 1740,
      "æ¬µ": 1741,
      "åĵķ": 1742,
      "ä¸Ģæĺ¯": 1743,
      "ë©į": 1744,
      "Param": 1745,
      "è±¿": 1746,
      "á»¶": 1747,
      "é¡ºåĪ©": 1748,
      "êĦ·": 1749,
      "()}}": 1750,
      "çº®": 1751,
      "åįģåħŃ": 1752,
      "ìļ¤": 1753,
      "ĊĉĉĠĠ": 1754,
      "åĩ·": 1755,
      "çıİ": 1756,
      "blob": 1757,
      "ĠTENTANG": 1758,
      "Úķ": 1759,
      "è¯ŀçĶŁ": 1760,
      "ç°¥": 1761,
      "Ġreduc": 1762,
      "æ¬Ľ": 1763,
      "=\"#\">": 1764,
      "çĲĨè´¢": 1765,
      "áĦı": 1766,
      "åĿ©": 1767,
      "è¬µ": 1768,
      "æł¼": 1769,
      "ĠusuÃ¡rio": 1770,
      "èļ¥": 1771,
      "ïİĻ": 1772,
      "è¢ĺ": 1773,
      "qx": 1774,
      "º": 1775,
      "Purchase": 1776,
      "é»ĭ": 1777,
      "å¤ĥ": 1778,
      "ĠHash": 1779,
      "ĠLeg": 1780,
      "ĠGRAPH": 1781,
      "îģº": 1782,
      "èĭĶ": 1783,
      "Resp": 1784,
      "æ®Ħ": 1785,
      "ĠCe": 1786,
      "Execution": 1787,
      "pubsub": 1788,
      "å½¢çĬ¶": 1789,
      "áıĽ": 1790,
      "created": 1791,
      "ðŁļ°": 1792,
      "æ·Ĺ": 1793,
      "âµ¥": 1794,
      "ä¸ºæĤ¨": 1795,
      "ãģĦ": 1796,
      "lands": 1797,
      "éĹĳ": 1798,
      "éĢİ": 1799,
      "Xaml": 1800,
      "SHIFT": 1801,
      "Ġwor": 1802,
      "çĻ": 1803,
      "Ġmachine": 1804,
      "îİ¬": 1805,
      "åĩłä¹İ": 1806,
      "ç¼ĩ": 1807,
      "ĠLIN": 1808,
      "ãģ¡": 1809,
      "WORLD": 1810,
      "Ġfully": 1811,
      "çŁŃçŁŃ": 1812,
      "ĠDIRECT": 1813,
      "à¸ģ": 1814,
      "sampling": 1815,
      "ã®Ī": 1816,
      "åľ°è´¨": 1817,
      ";?>": 1818,
      "è°ĳ": 1819,
      "ç¾¸": 1820,
      "å¿«éĢŁ": 1821,
      "â¦ħ": 1822,
      "çĿ®": 1823,
      "Ġrectangle": 1824,
      "æ£Ļ": 1825,
      "êĮĹ": 1826,
      "ĊĊĠĠĠĠĠĠ": 1827,
      "Ġkubectl": 1828,
      "å½ĵæĹ¶": 1829,
      "Attribute": 1830,
      "Ġ</": 1831,
      "é½¡": 1832,
      "î²ĩ": 1833,
      "è¡ª": 1834,
      "åĽĽå·Ŀ": 1835,
      "constraints": 1836,
      "ä¸ªå°ı": 1837,
      "à¥¥": 1838,
      "åĵ¡": 1839,
      "çİ¹": 1840,
      "îĲĬ": 1841,
      "holiday": 1842,
      "Section": 1843,
      "IVE": 1844,
      "å·²": 1845,
      "commit": 1846,
      "Æł": 1847,
      "ĊĠĠĠĠĠĠĠĠĠĠĠĠĠĠĠĠĠĠĠĠĠĠĠĠĠĠĠĠĠĠĠĠĠĠĠĠĠĠĠĠĠĠĠĠĠĠĠĠ": 1848,
      "éķĶ": 1849,
      "êľĦ": 1850,
      "å´µ": 1851,
      "Ostschwiz": 1852,
      "é®Ħ": 1853,
      "SES": 1854,
      "Low": 1855,
      "è¾ĥå¤§çļĦ": 1856,
      "Links": 1857,
      "ðŁĽ´": 1858,
      "ê¹Ĭ": 1859,
      "åŃ¦åĳĺ": 1860,
      "äºĶä¸ª": 1861,
      "éķ¿æľŁ": 1862,
      "å²¯": 1863,
      "çİº": 1864,
      "èĭĸ": 1865,
      "åħ¬ä¼Ĺ": 1866,
      "Ġdc": 1867,
      "VF": 1868,
      "è¼Ķ": 1869,
      "åĪĹ": 1870,
      "Ġreach": 1871,
      "Ġsupply": 1872,
      "éĽ®": 1873,
      "ainers": 1874,
      "æģ°": 1875,
      "ä¸ŃæľĢ": 1876,
      "ìĺ¤": 1877,
      "åĪ´": 1878,
      "ategories": 1879,
      "Reason": 1880,
      "resp": 1881,
      "Gamma": 1882,
      "čĊčĊĉĉ": 1883,
      "Ġsent": 1884,
      "èķ³": 1885,
      "HU": 1886,
      "äĲ°": 1887,
      "eda": 1888,
      "dimension": 1889,
      "anceled": 1890,
      "Fn": 1891,
      "craft": 1892,
      "è±Ī": 1893,
      "Billing": 1894,
      "è¤Ĳ": 1895,
      "getName": 1896,
      "ĠCNWSCreature": 1897,
      "èĤ«": 1898,
      "åŃł": 1899,
      "ERNEL": 1900,
      "ä¹ĥ": 1901,
      "Full": 1902,
      "Ýł": 1903,
      "åĬª": 1904,
      "è¦ģåĬłå¼º": 1905,
      "Spacing": 1906,
      "ForType": 1907,
      "Ġcompute": 1908,
      "temperature": 1909,
      "åħ±å»º": 1910,
      "ä»ĥ": 1911,
      "å¿ĥçĲĨåŃ¦": 1912,
      "äµ»": 1913,
      "çŀ´": 1914,
      "æ®»": 1915,
      "ictionary": 1916,
      "ïĽĮ": 1917,
      "äº²å¯Ĩ": 1918,
      "Ġver": 1919,
      "Scal": 1920,
      "ä¸ķ": 1921,
      "åĸ¨": 1922,
      "ssible": 1923,
      "atabase": 1924,
      "èĲĭ": 1925,
      "ä½ĵåĨħ": 1926,
      "é»ĳé¾Ļæ±Ł": 1927,
      "ç»ıåİĨ": 1928,
      "å»ºç«ĭäºĨ": 1929,
      "éıĬ": 1930,
      "âĢĿ,": 1931,
      "ÑĺÐ°": 1932,
      "Ġtime": 1933,
      "mu": 1934,
      "BOO": 1935,
      "éĹı": 1936,
      "COLL": 1937,
      "ĊĠĠĠĠ": 1938,
      "åĮĽ": 1939,
      "ãĥ³ãĤ¹": 1940,
      "æ¡¼": 1941,
      "æĪĦ": 1942,
      "Ġcontract": 1943,
      "å««": 1944,
      "çĶŁäº§": 1945,
      "MODEL": 1946,
      "ë¥Ļ": 1947,
      "éĬĥ": 1948,
      "çľĭè¿ĩ": 1949,
      "avig": 1950,
      "ingress": 1951,
      "é¬£": 1952,
      "éī²": 1953,
      "ãĽĳ": 1954,
      "Ġtoo": 1955,
      "æ´Ķ": 1956,
      "è©£": 1957,
      "äº§çĶŁäºĨ": 1958,
      "ä¸Ģç³»åĪĹ": 1959,
      "Ġportion": 1960,
      "éŁĦ": 1961,
      "áĭĻ": 1962,
      "ist": 1963,
      "Ġscalar": 1964,
      "ðŁĶļ": 1965,
      "CM": 1966,
      "ĊĠĠĠĠĉ": 1967,
      "Ġheading": 1968,
      "à§ģ": 1969,
      "uchar": 1970,
      "èº«ä¸Ĭ": 1971,
      "éĬµ": 1972,
      "ace": 1973,
      "Ġ'#": 1974,
      "ĠIEEE": 1975,
      "ðŁı¿": 1976,
      "×ı": 1977,
      "æ½Ľ": 1978,
      "filer": 1979,
      "å¯ª": 1980,
      "æ»Ħ": 1981,
      "áĪ»": 1982,
      "êĥ¢": 1983,
      "æ±Łè¥¿": 1984,
      "åı¯è§ģ": 1985,
      "æīª": 1986,
      "è¦ģçļĦ": 1987,
      "îĻĥ": 1988,
      "îĨª": 1989,
      "äĬ¨": 1990,
      "regexp": 1991,
      "Sequence": 1992,
      "Ê": 1993,
      "å¹ķ": 1994,
      "êĭĬ": 1995,
      "ÞŃ": 1996,
      "ìĥ¤": 1997,
      "mpp": 1998,
      "êĭĮ": 1999,
      "æķĺ": 2000,
      "')\"": 2001,
      "á»ª": 2002,
      "){": 2003,
      "áŁĩ": 2004,
      "æĢģ": 2005,
      "å§´": 2006,
      "WK": 2007,
      "é¨Ĩ": 2008,
      "ç«ŀäºīåĬĽ": 2009,
      "ì»«": 2010,
      "å³¢": 2011,
      "èĻı": 2012,
      "åıĳéħµ": 2013,
      "çıł": 2014,
      "æ¡ŀ": 2015,
      "stream": 2016,
      "Ġprop": 2017,
      "åĲĦåįķä½į": 2018,
      "êĢ": 2019,
      "conds": 2020,
      "ðŁ¦Ĩ": 2021,
      "áĮ³": 2022,
      "éī£": 2023,
      "Æº": 2024,
      "abi": 2025,
      "ä¸įåıĺ": 2026,
      "åİ°": 2027,
      "Ġdirname": 2028,
      "åĪ¶éĢł": 2029,
      "(\"../": 2030,
      "çĨİ": 2031,
      "æĸ¹åĲĳ": 2032,
      "å¡Ģ": 2033,
      "ë³µ": 2034,
      "setter": 2035,
      "ðŁ¥¬": 2036,
      "Slider": 2037,
      "æ«µ": 2038,
      "éĭŃ": 2039,
      "Ġ\"@": 2040,
      "Blue": 2041,
      "Ġdescri": 2042,
      "èį£èĢĢ": 2043,
      "çľĥ": 2044,
      "ïĤ¹": 2045,
      "äģĸ": 2046,
      "è´£ä»»": 2047,
      "Manual": 2048,
      "ãĥł": 2049,
      "á¸": 2050,
      "æĮĨ": 2051,
      "ymbolic": 2052,
      "îĤħ": 2053,
      "áĬ¦": 2054,
      "ä½²": 2055,
      "çĪĲ": 2056,
      "ĠTHIS": 2057,
      "áĮ": 2058,
      "views": 2059,
      "åĩıèĤ¥": 2060,
      "å¾§": 2061,
      "î®ģ": 2062,
      "ĠAng": 2063,
      "kind": 2064,
      "votes": 2065,
      "ĠĠĠĠĠĠĠĠĠĠĠĠĠĠĠĠĠĠĠĠĠĠĠĠĠĠ": 2066,
      "æķ¥": 2067,
      "ĠAr": 2068,
      "âĻ°": 2069,
      "BigDecimal": 2070,
      "éī": 2071,
      "ðŁ¦Ģ": 2072,
      "ĠjLabel": 2073,
      "âĤº": 2074,
      "Button": 2075,
      "ðŁĮº": 2076,
      "Ġusual": 2077,
      "åŁķ": 2078,
      "Ġmist": 2079,
      "âĨ": 2080,
      "ðĵĢ¢": 2081,
      "ëĥ¬": 2082,
      "vious": 2083,
      "å¤§éĩı": 2084,
      "îĢĨ": 2085,
      "GV": 2086,
      "æ³ķéĻ¢": 2087,
      "caught": 2088,
      "æº²": 2089,
      "Density": 2090,
      "ĠVARI": 2091,
      "ĠAg": 2092,
      "è¾¶": 2093,
      ";\");": 2094,
      "ç«ĭé©¬": 2095,
      "è±Ĵ": 2096,
      "Clus": 2097,
      "rgba": 2098,
      "æĴª": 2099,
      "êıł": 2100,
      "éĨĮ": 2101,
      "æĢĩ": 2102,
      "ph": 2103,
      "inate": 2104,
      "æ¥£": 2105,
      "è®¤ä¸º": 2106,
      "Locations": 2107,
      "î¤Ħ": 2108,
      "æ¡Īä¾ĭ": 2109,
      "Latency": 2110,
      "éŃ¶": 2111,
      "oad": 2112,
      "å½§": 2113,
      "é©®": 2114,
      "\\,": 2115,
      "ãĦĬ": 2116,
      "Ó£": 2117,
      "Fox": 2118,
      "æĬ¤èĤ¤": 2119,
      "Ġoperating": 2120,
      "åīĦ": 2121,
      "ïĤ¯": 2122,
      "ĠCLAIM": 2123,
      "ĠTH": 2124,
      "ĠIM": 2125,
      "âĤ¥": 2126,
      "èĽĭçĻ½è´¨": 2127,
      "â¬ĳ": 2128,
      "æļ¾": 2129,
      "åĬ©äºİ": 2130,
      "ðŁĴ¬": 2131,
      "çİĽ": 2132,
      "ĠRectangle": 2133,
      "Success": 2134,
      "è¯ĭ": 2135,
      "çĺĦ": 2136,
      "ã«Ĭ": 2137,
      "ç¤ºèĮĥåĮº": 2138,
      "èĤ¶": 2139,
      "ĠHowever": 2140,
      "é¥ķ": 2141,
      "âĥĺ": 2142,
      "ðŁĴĹ": 2143,
      "erver": 2144,
      "åīŀ": 2145,
      "ä¸ŃåĽ½çļĦ": 2146,
      "requirements": 2147,
      "é¨«": 2148,
      "åİ¢": 2149,
      "icks": 2150,
      "Tracker": 2151,
      "ĠIterator": 2152,
      "ïķĶ": 2153,
      "å²©": 2154,
      "Ĥ´": 2155,
      "æµ«": 2156,
      "ĠContents": 2157,
      "æŁĴ": 2158,
      "VISED": 2159,
      "æĢ¯": 2160,
      "éĤ¿": 2161,
      "VER": 2162,
      "å±Ģéĥ¨": 2163,
      "äĨ¡": 2164,
      "Î¨": 2165,
      "(\"\\": 2166,
      ",)": 2167,
      "å¤Ħç½ļ": 2168,
      "êĨı": 2169,
      "è¿Ŀçºª": 2170,
      "atform": 2171,
      "osa": 2172,
      "îĶĢ": 2173,
      "Ġ#": 2174,
      "æ¾Ľ": 2175,
      "èĪĩ": 2176,
      "Ack": 2177,
      "Extend": 2178,
      "ç·ĭ": 2179,
      "Ġinteract": 2180,
      "ë´¤": 2181,
      "æŃĹ": 2182,
      "äºĭåĬ¡": 2183,
      "î¶§": 2184,
      "é»´": 2185,
      "è¤¦": 2186,
      "çĴĦ": 2187,
      "orte": 2188,
      "â¬§": 2189,
      "Ġimpl": 2190,
      "çıĲ": 2191,
      "rpc": 2192,
      "trial": 2193,
      "ãĤļ": 2194,
      "Ġped": 2195,
      "PORT": 2196,
      "Ġdistribut": 2197,
      "æ¤ĳ": 2198,
      "UNSIGNED": 2199,
      "ìĳ¹": 2200,
      "flow": 2201,
      "ëĵ±": 2202,
      "êĳ¸": 2203,
      "æ«Ľ": 2204,
      "è¿ĺæľª": 2205,
      "å¤§å±Ģ": 2206,
      "apped": 2207,
      "ĠEncoding": 2208,
      "Ġmissing": 2209,
      "âĺĦ": 2210,
      "çĶ¨å¿ĥ": 2211,
      "æ§ı": 2212,
      "Ġconcrete": 2213,
      "æºĢ": 2214,
      "åĵªéĩĮ": 2215,
      "ëĭĿ": 2216,
      "Ang": 2217,
      "mis": 2218,
      "à¨Ĩ": 2219,
      "è´¢äº§": 2220,
      "èĩħ": 2221,
      "æīĤ": 2222,
      "\"_": 2223,
      "æĿĵ": 2224,
      "è¡Įä¸º": 2225,
      "å¤§éĹ¨": 2226,
      "Gatt": 2227,
      "privacy": 2228,
      "è¥ĭ": 2229,
      "ÝĹ": 2230,
      "ÇĶ": 2231,
      "àªĨ": 2232,
      "protobuf": 2233,
      "èĽ²": 2234,
      "çĮĿ": 2235,
      "è¶ĺ": 2236,
      "é£İæĻ¯": 2237,
      "åĭķ": 2238,
      "}/${": 2239,
      "ðŁĴĿ": 2240,
      "material": 2241,
      "éĭ¯": 2242,
      "ã¬µ": 2243,
      "æ¤¾": 2244,
      "å°»": 2245,
      "à¨ļ": 2246,
      "çĲ¬": 2247,
      "çĽĳæµĭ": 2248,
      "å¶·": 2249,
      "Ġsettings": 2250,
      "ðŁ¥¹": 2251,
      "çķĥ": 2252,
      "Ġcur": 2253,
      "éİĪ": 2254,
      "çĲĪ": 2255,
      "îĿŁ": 2256,
      "pwd": 2257,
      "TRY": 2258,
      "/": 2259,
      "æ²ģ": 2260,
      "å¹³ç¨³": 2261,
      "èŃİ": 2262,
      "ĠiPhone": 2263,
      "å¼Ģå·¥": 2264,
      "åŃī": 2265,
      "å²ĺ": 2266,
      "æ·°": 2267,
      "æĢ»ç»Ł": 2268,
      "ĠæīĢä»¥": 2269,
      "ì¶ĺ": 2270,
      "POOL": 2271,
      "è·³": 2272,
      "èĲĴ": 2273,
      "è®°å¿Ĩ": 2274,
      "åĤį": 2275,
      "åıĳçİ°äºĨ": 2276,
      "åī½": 2277,
      "éĴ±è´¢": 2278,
      "æ¶ĵ": 2279,
      "Most": 2280,
      "Ġgrad": 2281,
      "gradle": 2282,
      "æĪł": 2283,
      "xffff": 2284,
      "ĊĠ": 2285,
      "é²ľèĬ±": 2286,
      "imiento": 2287,
      "Ke": 2288,
      "é§ĥ": 2289,
      "NAMIC": 2290,
      "ben": 2291,
      "å¹¸è¿Ĳ": 2292,
      "íķľ": 2293,
      "Ġtransactions": 2294,
      "Sdk": 2295,
      "èľĽ": 2296,
      "æ¦ĩ": 2297,
      "éĶĻäºĨ": 2298,
      "èĬ´": 2299,
      ",</": 2300,
      "á½¦": 2301,
      "Ò°": 2302,
      "poly": 2303,
      "Ð½Ð¾Ð³Ð¾": 2304,
      "Ġ{#": 2305,
      "èľĤèľľ": 2306,
      "Middleware": 2307,
      "Ġ×Ĳ": 2308,
      "ç¡¿": 2309,
      "ä¸įåĩº": 2310,
      "ç»Ļå¤§": 2311,
      "aux": 2312,
      "é»Ħèī²": 2313,
      "Ġnumerical": 2314,
      "Ġsd": 2315,
      "ïĴ£": 2316,
      "ðŁĺ¼": 2317,
      "ĊĠĠĠĠĠĠĠĠĠĠĠ": 2318,
      "CONN": 2319,
      "æħ§": 2320,
      "Ġtabindex": 2321,
      "=[]": 2322,
      "venv": 2323,
      "æ¦İ": 2324,
      "èıĽ": 2325,
      "Pg": 2326,
      "ĠConnector": 2327,
      "Ġ(_": 2328,
      ">[": 2329,
      "à¶§": 2330,
      "çĹ¾": 2331,
      "íĺĢ": 2332,
      "DR": 2333,
      "čĊĠĠĠĠĠĠĠĠĠĠĠĠĠĠĠĠĠĠ": 2334,
      "Ġny": 2335,
      "ê¿Ģ": 2336,
      "Ġpatch": 2337,
      "è¦©": 2338,
      "Ġformat": 2339,
      "êĴ³": 2340,
      "ĠDest": 2341,
      "êĪ½": 2342,
      "êĻ©": 2343,
      "èŀĵ": 2344,
      "åĨľæĪ·": 2345,
      "â£»": 2346,
      "çĴ·": 2347,
      "Ġvoor": 2348,
      "æ±°": 2349,
      "llen": 2350,
      "êĩİ": 2351,
      "Maybe": 2352,
      "Homebrew": 2353,
      "ĠAppro": 2354,
      "hasht": 2355,
      "çķ©": 2356,
      "èħª": 2357,
      "Inflater": 2358,
      "èĭĲ": 2359,
      "nÃ©es": 2360,
      "å´ķ": 2361,
      "fv": 2362,
      "å¨½": 2363,
      "åĪī": 2364,
      "Ã¡l": 2365,
      "è¼¤": 2366,
      "åĴģ": 2367,
      "áĲĻ": 2368,
      "events": 2369,
      "Ýļ": 2370,
      "BOTTOM": 2371,
      "çļĦä¸Ń": 2372,
      "ĠFront": 2373,
      "ĠScale": 2374,
      "ë¶Ĳ": 2375,
      "åĮį": 2376,
      "åļ´": 2377,
      "å¼µ": 2378,
      "âĺĺ": 2379,
      "common": 2380,
      "cape": 2381,
      "à©¦": 2382,
      "æĹ®": 2383,
      "éŃª": 2384,
      "browser": 2385,
      "Ġrather": 2386,
      "Motor": 2387,
      "gregated": 2388,
      "å¼©": 2389,
      "ãĴ³": 2390,
      "each": 2391,
      "èŁ»": 2392,
      "Ġcurr": 2393,
      "çĤ¹çĤ¹": 2394,
      "åĴ©": 2395,
      "ê±": 2396,
      "è³Ĳ": 2397,
      "è¼¶": 2398,
      "Mapped": 2399,
      "éªĹ": 2400,
      "Ġmeasurement": 2401,
      "ç¼İ": 2402,
      "èĺ»": 2403,
      "ĠFC": 2404,
      "ľâĶĢâĶĢ": 2405,
      "Ġ`./": 2406,
      "áĳ®": 2407,
      "éĥ½å¾Ī": 2408,
      "çº": 2409,
      "á¿´": 2410,
      "åŁł": 2411,
      "éķ¨": 2412,
      "âłĲ": 2413,
      "åľ¨ä»ĸ": 2414,
      "icip": 2415,
      "GQ": 2416,
      "é´Ľ": 2417,
      "èĩ³æĺ¯": 2418,
      "åħ·ä½ĵ": 2419,
      "ðŁĺµ": 2420,
      "éĨī": 2421,
      "çµ¾": 2422,
      "Ġåħĥ": 2423,
      "('../../": 2424,
      "Programming": 2425,
      "beam": 2426,
      ":#": 2427,
      "uro": 2428,
      "userInfo": 2429,
      "é©Ľ": 2430,
      "genome": 2431,
      "æ±·": 2432,
      "îĪŀ": 2433,
      "justify": 2434,
      "ðŁĺª": 2435,
      "setSelected": 2436,
      "ĠRM": 2437,
      "paragraph": 2438,
      "ðŁĵĻ": 2439,
      "é·½": 2440,
      "################################": 2441,
      "Ġcount": 2442,
      "members": 2443,
      "çį§": 2444,
      "î²ĺ": 2445,
      "ARGUMENT": 2446,
      "ä¹Ĵ": 2447,
      "æ»£": 2448,
      "æĭĽå½ķ": 2449,
      "çĸĹæ³ķ": 2450,
      "build": 2451,
      "isNull": 2452,
      "èµ°åľ¨": 2453,
      "ïħĢ": 2454,
      "èĢĬ": 2455,
      "ë°ĸ": 2456,
      "æļĪ": 2457,
      "É©": 2458,
      "HP": 2459,
      "æ½ģ": 2460,
      "rive": 2461,
      "çŃĸåĪĴ": 2462,
      "ĠPE": 2463,
      "éĺĺ": 2464,
      "ä°ĸ": 2465,
      "àµģ": 2466,
      "çļĦæľĢ": 2467,
      "çĮ½": 2468,
      "é¢ĺ": 2469,
      "éĿ©åĳ½": 2470,
      "èĥ¥": 2471,
      "Ġhr": 2472,
      "éĶµ": 2473,
      "Html": 2474,
      ")</": 2475,
      "ÞŁ": 2476,
      "êĢİ": 2477,
      "ä¸įè®º": 2478,
      "ä¸Ģä¸ĭ": 2479,
      "Ð²Ðµ": 2480,
      "Ġcellpadding": 2481,
      "æ»µ": 2482,
      "ĠìļĶ": 2483,
      "à·ľ": 2484,
      "é²Ł": 2485,
      "å¡į": 2486,
      "åŃ£åº¦": 2487,
      "Um": 2488,
      "è¶Ĵ": 2489,
      "é©¨": 2490,
      "è±ĩ": 2491,
      "ĠGeneral": 2492,
      "æĭł": 2493,
      "preventDefault": 2494,
      "Country": 2495,
      "hardware": 2496,
      "ading": 2497,
      "ã¸ĥ": 2498,
      "ä¸Ģæīĭ": 2499,
      "åī¯å¸Ĥ": 2500,
      "Ġba": 2501,
      "|()": 2502,
      "Ð½ÑĭÐµ": 2503,
      "æ¢ª": 2504,
      "Ùı": 2505,
      "åģ¥åº·": 2506,
      "Ġmark": 2507,
      "éĦŀ": 2508,
      "}).": 2509,
      "ê·ł": 2510,
      "ëħĶ": 2511,
      "é¼Ī": 2512,
      "å³Ĵ": 2513,
      "éĢĤéĩı": 2514,
      "ĠE": 2515,
      "âī¯": 2516,
      "áł½": 2517,
      "åĲĳåīį": 2518,
      "ä»¥åľ¨": 2519,
      "åļ®": 2520,
      "å¤§åİ¦": 2521,
      "flo": 2522,
      "èĽī": 2523,
      "Ġç¬¬": 2524,
      "DoxyCompact": 2525,
      "ĠSummary": 2526,
      "ked": 2527,
      "ĠRGB": 2528,
      "çıŃ": 2529,
      "âĬĹ": 2530,
      "èģĮå·¥": 2531,
      "à¤": 2532,
      "è¹µ": 2533,
      "Ġbil": 2534,
      "ðŁ§¬": 2535,
      "Ġx": 2536,
      "å©ħ": 2537,
      "cols": 2538,
      "æĮĩç¤º": 2539,
      "iterations": 2540,
      "Ġ(+": 2541,
      "çĥ¡": 2542,
      "ĠQt": 2543,
      "à¸·": 2544,
      "ÜĴ": 2545,
      "åĹİ": 2546,
      "éĥ©": 2547,
      "å·¼": 2548,
      "Ġtrack": 2549,
      "èĽĢ": 2550,
      "æĪĲä¸ºäºĨ": 2551,
      "Contexts": 2552,
      "Ġconverter": 2553,
      "èļĤ": 2554,
      "ÎĴ": 2555,
      "ïĪ«": 2556,
      "ĠFilter": 2557,
      "Þł": 2558,
      "Ġmentioned": 2559,
      "é¥Ń": 2560,
      "à®²": 2561,
      "á½§": 2562,
      "å¾«": 2563,
      "çĽ¾": 2564,
      "îħŀ": 2565,
      "Ġprepare": 2566,
      "åĴ»": 2567,
      "ëºı": 2568,
      "æ©ħ": 2569,
      "ÚĪ": 2570,
      "DefaultValue": 2571,
      "ĠYY": 2572,
      "æĵĦ": 2573,
      "çĲĴ": 2574,
      "ðŁĲĪ": 2575,
      "éĩĩçĶ¨": 2576,
      "ÚĶ": 2577,
      "éĴ½": 2578,
      "è²§": 2579,
      "çĥģ": 2580,
      "Ð®": 2581,
      "æ©º": 2582,
      "BER": 2583,
      "×ł": 2584,
      "äŁ¦": 2585,
      "anty": 2586,
      "å¼ĢæĶ¾": 2587,
      "Ñ¢": 2588,
      "ïĶĢ": 2589,
      "îĢİ": 2590,
      "ĠNotify": 2591,
      "Prepared": 2592,
      "ynam": 2593,
      "ç¡®": 2594,
      "ĠScore": 2595,
      "ä½ľçļĦ": 2596,
      "umber": 2597,
      "èĢ«": 2598,
      "äººä»¬": 2599,
      "ä¸ĭè½¦": 2600,
      "éİ½": 2601,
      "Ġhook": 2602,
      "ieve": 2603,
      "è³¶": 2604,
      "seen": 2605,
      "çºĢ": 2606,
      "áĢĭ": 2607,
      "Sam": 2608,
      "åªĭ": 2609,
      "åĴľ": 2610,
      "æ¸ī": 2611,
      "áł°": 2612,
      "à¨": 2613,
      "æļ¸": 2614,
      "severity": 2615,
      "æ²ħ": 2616,
      "ç¯º": 2617,
      "ĠLib": 2618,
      "Ġsleep": 2619,
      "éı²": 2620,
      "\"/>.": 2621,
      "ìį¼": 2622,
      "METHO": 2623,
      "éĢīæĭ©äºĨ": 2624,
      "II": 2625,
      "ĠSUMMARY": 2626,
      "Éĩ": 2627,
      "çľĭä¹¦": 2628,
      "èĦ¾æ°Ķ": 2629,
      "àªŀ": 2630,
      "êĬ¥": 2631,
      "é¡ģ": 2632,
      "åĲĥ": 2633,
      "èĭŀ": 2634,
      "å¤±åİ»": 2635,
      "áįĵ": 2636,
      "èį¯åĵģ": 2637,
      "ĠPu": 2638,
      "EST": 2639,
      "è´£ç¼ĸ": 2640,
      "PW": 2641,
      "mazon": 2642,
      "ðŁĻĥ": 2643,
      "reed": 2644,
      "ĠsiÄĻ": 2645,
      "äı»": 2646,
      "ability": 2647,
      "áºĵ": 2648,
      "æİľ": 2649,
      "diag": 2650,
      "ðŁļ¬": 2651,
      "è©³": 2652,
      "}\\\\": 2653,
      "áĲĲ": 2654,
      "äºĪ": 2655,
      "éļı": 2656,
      "å©Į": 2657,
      "ä¸ĢçŃī": 2658,
      "ðŁ¤Ľ": 2659,
      "Ġ[['": 2660,
      "centered": 2661,
      "ĠLearn": 2662,
      "àª¢": 2663,
      "åĨį": 2664,
      "á¼Ĳ": 2665,
      "æĸĽ": 2666,
      "æįŁä¼¤": 2667,
      "Pago": 2668,
      "éĿ¢åŃĲ": 2669,
      "ã¢²": 2670,
      "ment": 2671,
      "readme": 2672,
      "Ġregistered": 2673,
      "å¶´": 2674,
      "style": 2675,
      "èĮĥ": 2676,
      "vc": 2677,
      "à¸ī": 2678,
      "åģļé¥Ń": 2679,
      "åŀ·": 2680,
      "voke": 2681,
      "PRO": 2682,
      "cons": 2683,
      "cem": 2684,
      "leccion": 2685,
      "ĠÐľ": 2686,
      "TEST": 2687,
      "Ġactions": 2688,
      "ĠColumn": 2689,
      "Ġprofiles": 2690,
      "/\">": 2691,
      "æ³ħ": 2692,
      "çŃīä½ł": 2693,
      "ä¿Ħç½Ĺæĸ¯": 2694,
      "æĶķ": 2695,
      "çĽ¸åħ³": 2696,
      "âĽ²": 2697,
      "æĥħåĨµä¸ĭ": 2698,
      "á¼¹": 2699,
      "ĠHyperledger": 2700,
      "Ġwi": 2701,
      "æĨł": 2702,
      "è½¨": 2703,
      "åĲįæł¡": 2704,
      "éĳ±": 2705,
      "\");": 2706,
      "å¸ľ": 2707,
      "deliver": 2708,
      "åĨįæĿ¥": 2709,
      "æ°Ī": 2710,
      "çķ³": 2711,
      "plots": 2712,
      "æłĳç«ĭ": 2713,
      "áķª": 2714,
      "æ¨¤": 2715,
      "ç°ĳ": 2716,
      "gs": 2717,
      "é¡µéĿ¢": 2718,
      "Inform": 2719,
      "Çĵ": 2720,
      "è°»": 2721,
      "åĵł": 2722,
      "ìĮ": 2723,
      "èĦĭ": 2724,
      "á¯ĵ": 2725,
      "æ°Ķä½ĵ": 2726,
      "ãĥ¤": 2727,
      "hun": 2728,
      "Customer": 2729,
      "tailed": 2730,
      "è¦ģä¹Ī": 2731,
      "áŁĲ": 2732,
      "å¸ĥå±Ģ": 2733,
      "ily": 2734,
      "ymer": 2735,
      "ç«Ĩ": 2736,
      "Æķ": 2737,
      "^^^^": 2738,
      "æĹłåħ³": 2739,
      "IGENCE": 2740,
      "Easy": 2741,
      "åĩĳ": 2742,
      "îĥİ": 2743,
      "acement": 2744,
      "Ġvalid": 2745,
      "ëħ¹": 2746,
      "Ġmultiply": 2747,
      "é¹¤": 2748,
      "Ġactive": 2749,
      "æ·ĺ": 2750,
      "å¹Ĵ": 2751,
      "à®Ķ": 2752,
      "ç§Ŀ": 2753,
      "æ¯ıä¸Ģä¸ª": 2754,
      "Ġinitialized": 2755,
      "FORCE": 2756,
      "cnn": 2757,
      "ãŁĮ": 2758,
      "è£ĺ": 2759,
      "å¾ĴåĪĳ": 2760,
      "éĢīä¸¾": 2761,
      "chemy": 2762,
      "à£¢": 2763,
      "æĿĥå½Ĵ": 2764,
      "éļıçĿĢ": 2765,
      "æģĦ": 2766,
      "é¨Ĥ": 2767,
      "ðŁį·": 2768,
      "ä»ĬåĲİ": 2769,
      "ðŁĺ§": 2770,
      "ĠĠĊĠĠĠĠĠ": 2771,
      "Ġì": 2772,
      "å¬¿": 2773,
      "à´´": 2774,
      "ugiat": 2775,
      "é§¶": 2776,
      "nest": 2777,
      "cot": 2778,
      "èĸ©": 2779,
      "ä¹¦éķ¿": 2780,
      "snap": 2781,
      "áįĥ": 2782,
      "Ġalg": 2783,
      "ç±¡": 2784,
      "Ġnew": 2785,
      "çľº": 2786,
      "îĢ·": 2787,
      "å¤§éĩıçļĦ": 2788,
      "åĪ©çİĩ": 2789,
      "ategor": 2790,
      "èĹ½": 2791,
      "æ¬¢ä¹Ĳ": 2792,
      "ĠThen": 2793,
      "valid": 2794,
      "ĠPending": 2795,
      "ÂŃ": 2796,
      "æ²īæ·Ģ": 2797,
      "è¯ĬçĸĹ": 2798,
      "Opened": 2799,
      "ì¹´": 2800,
      "ìŀ¬": 2801,
      "æĢ»ç»ĵ": 2802,
      "fwlink": 2803,
      "RP": 2804,
      "ðĿĦ": 2805,
      "âĬ±": 2806,
      "éĽ¤": 2807,
      "âĭĲ": 2808,
      "éĿ«": 2809,
      "åĮ¡": 2810,
      "HIST": 2811,
      "-'": 2812,
      "null": 2813,
      "ê³±": 2814,
      "Relations": 2815,
      "à¦¡": 2816,
      "ĠSign": 2817,
      "åĮĸä¸º": 2818,
      "çį¾": 2819,
      "ä¸ĵä¸ļçļĦ": 2820,
      "à£ı": 2821,
      "rena": 2822,
      "çļĵ": 2823,
      "ïĨĦ": 2824,
      "ĠareaName": 2825,
      "ç¶©": 2826,
      "åĵ³": 2827,
      "ëŃĩ": 2828,
      "ðŁĽ¬": 2829,
      "åºĢ": 2830,
      "âŀĥ": 2831,
      "çµĬ": 2832,
      "Ġ$(": 2833,
      "Area": 2834,
      "à°į": 2835,
      "îĥ¥": 2836,
      "î¤²": 2837,
      "å©Ĥ": 2838,
      "ere": 2839,
      "çª¶": 2840,
      "æĪ¿ä»·": 2841,
      "wow": 2842,
      "æĹ©å®ī": 2843,
      "åģĤ": 2844,
      "æ¸¾": 2845,
      "å£µ": 2846,
      "à®¹": 2847,
      "åħľ": 2848,
      "çĲ·": 2849,
      "éģ¥": 2850,
      "êİ³": 2851,
      "Infrastructure": 2852,
      "Ph": 2853,
      "åĲħ": 2854,
      "æ«Ĵ": 2855,
      "ç®ĩ": 2856,
      "cub": 2857,
      "æ¶Ķ": 2858,
      "æĺľ": 2859,
      "ima": 2860,
      "éİį": 2861,
      "Ġpo": 2862,
      "æ²¸": 2863,
      "Ġzk": 2864,
      "zi": 2865,
      "ï´¾": 2866,
      "æ¥ĵ": 2867,
      "çºħ": 2868,
      "æĺŁåº§": 2869,
      "\\\">": 2870,
      "é¤¯": 2871,
      "ðŁĩ©": 2872,
      "WO": 2873,
      "ë©¸": 2874,
      "å½ķåıĸ": 2875,
      "åħ»æĬ¤": 2876,
      "å±¯": 2877,
      "åĥ¶": 2878,
      "ë°Į": 2879,
      "çĸĵ": 2880,
      "äµŁ": 2881,
      "î¢¯": 2882,
      "åķ©": 2883,
      "eld": 2884,
      "æĨ¡": 2885,
      "SDK": 2886,
      "_%": 2887,
      "åīŁ": 2888,
      "MAGES": 2889,
      "æıľ": 2890,
      "æ±ĩ": 2891,
      "ĠfileName": 2892,
      "éį¯": 2893,
      "ç²»": 2894,
      "CharField": 2895,
      "èŁ¢": 2896,
      "èĤķ": 2897,
      "ians": 2898,
      "Þļ": 2899,
      "çļĦçłĶç©¶": 2900,
      "Mult": 2901,
      "îĭ³": 2902,
      "å²Ĳ": 2903,
      "jn": 2904,
      "æĲ¿": 2905,
      "ïħ§": 2906,
      "Tel": 2907,
      "î£¢": 2908,
      "ĠPart": 2909,
      "Ġstopped": 2910,
      "éİ¼": 2911,
      "æ£ĳ": 2912,
      "áĬª": 2913,
      "ïķ": 2914,
      "æ·¾": 2915,
      "åħ¨æ°ĳ": 2916,
      "PARAM": 2917,
      "è»Ħ": 2918,
      "Threshold": 2919,
      "Ġflex": 2920,
      "çĭº": 2921,
      "ĠGENER": 2922,
      "relative": 2923,
      "rum": 2924,
      "å¢ŀåĬł": 2925,
      "éŃĽ": 2926,
      "ëłĿ": 2927,
      "Ġ`'": 2928,
      "å¹´çºª": 2929,
      "ä¹ĭéĻħ": 2930,
      "éĦĵ": 2931,
      "å¸®åĬ©": 2932,
      "Lm": 2933,
      "ïİµ": 2934,
      "çĹ§": 2935,
      "æªĸ": 2936,
      "ç¨ļ": 2937,
      "æĸ¹èĥ½": 2938,
      "ìķĶ": 2939,
      "âĢ¬": 2940,
      "æĦŀ": 2941,
      "çıĹ": 2942,
      "áº½": 2943,
      "Associ": 2944,
      "èĩ³ä»Ĭ": 2945,
      "Key": 2946,
      "BOARD": 2947,
      "ä¸įä»ħ": 2948,
      "Ġresponse": 2949,
      "âį¼": 2950,
      "Ġconda": 2951,
      "south": 2952,
      "MethodName": 2953,
      "éĢ³": 2954,
      "ðĸ¦": 2955,
      "æ¯°": 2956,
      "powered": 2957,
      "ĠBank": 2958,
      "hol": 2959,
      "Ġ.": 2960,
      "çĸĥ": 2961,
      "äºĢ": 2962,
      "æ»¡åĪĨ": 2963,
      "æ¬¡æĢ§": 2964,
      "åĲĮçļĦ": 2965,
      "annotations": 2966,
      "obs": 2967,
      "bean": 2968,
      "ĠDCHECK": 2969,
      "ä¸įåĲĮçļĦ": 2970,
      "å¿Į": 2971,
      "Ġ(_,": 2972,
      "âĺª": 2973,
      "ç¦ĭ": 2974,
      "å®ŀéĻħ": 2975,
      "Datas": 2976,
      "ĠSystem": 2977,
      "ĠìĹ¬": 2978,
      "áĲŁ": 2979,
      "éĺ¥": 2980,
      "áĪļ": 2981,
      "å§Ķä¼ļ": 2982,
      "#>": 2983,
      "asters": 2984,
      "ë§µ": 2985,
      "Ġwindow": 2986,
      "é¥»": 2987,
      "aws": 2988,
      "ĠWIDTH": 2989,
      "Redirect": 2990,
      "Ġkubernetes": 2991,
      "éĿİ": 2992,
      "æ¨¯": 2993,
      "áº¾": 2994,
      "INFRINGEMENT": 2995,
      "autom": 2996,
      "Ġpins": 2997,
      "îķĿ": 2998,
      "âĩĥ": 2999,
      "îļ§": 3000,
      "Ġeye": 3001,
      "Ġestado": 3002,
      "è±Į": 3003,
      "usable": 3004,
      "éĢĶå¾Ħ": 3005,
      "â»¨": 3006,
      "éĺµå®¹": 3007,
      "ĠMusic": 3008,
      "îĻĮ": 3009,
      "Ġareas": 3010,
      "éºį": 3011,
      "ĠAD": 3012,
      "clip": 3013,
      "æĤı": 3014,
      "querySelectorAll": 3015,
      "Ġplaceholder": 3016,
      "Letter": 3017,
      "ç§©": 3018,
      "lgl": 3019,
      "Íħ": 3020,
      "è¿Ŀæ³ķ": 3021,
      "æĬĹæĹ¥": 3022,
      "îĴī": 3023,
      "Ticks": 3024,
      "examples": 3025,
      "á¾ł": 3026,
      "âĮĩ": 3027,
      "æ¤º": 3028,
      "çĵ¥": 3029,
      "ĠTa": 3030,
      "insight": 3031,
      "è¿ĩ": 3032,
      "çľĭèµ·": 3033,
      "åĺĭ": 3034,
      "Mat": 3035,
      "Ġtm": 3036,
      "æ¶±": 3037,
      "ê¹¥": 3038,
      "çļĦåĬĽ": 3039,
      "íĥ": 3040,
      "ðŁĮ¾": 3041,
      "Ġinherited": 3042,
      "æ¹¦": 3043,
      "åıĤèµĽ": 3044,
      "rian": 3045,
      "Recomm": 3046,
      "æĮĽ": 3047,
      "ï£°": 3048,
      "ë¡±": 3049,
      "cade": 3050,
      "çĿī": 3051,
      "ĠBool": 3052,
      "à¥¾": 3053,
      "âŀ¼": 3054,
      "Ġinstaller": 3055,
      "åĳ½é¢ĺ": 3056,
      "èĴĽ": 3057,
      "åı¸": 3058,
      "ëĺĪ": 3059,
      "numpy": 3060,
      "å´¾": 3061,
      "à£¡": 3062,
      "ĠĊĠĠĠĠĠĠĠĠĠĠĠĠ": 3063,
      "îŀ": 3064,
      "æĮĤ": 3065,
      "PN": 3066,
      "GRE": 3067,
      "aja": 3068,
      "æĲľç´¢": 3069,
      "î·¬": 3070,
      "èĢ¶": 3071,
      "èĿ·": 3072,
      "Ġnavbar": 3073,
      "Èľ": 3074,
      "èŁ´": 3075,
      "æ´»æĢ§": 3076,
      "å¤": 3077,
      "from": 3078,
      "Ġboost": 3079,
      "memo": 3080,
      "Decision": 3081,
      "¹Ħ": 3082,
      "è¼Ĵ": 3083,
      "è¹¹": 3084,
      "ĠÃ¨": 3085,
      "á¦": 3086,
      "ã¤´": 3087,
      "onsive": 3088,
      "à°Ĳ": 3089,
      "èįľ": 3090,
      "Ġdeal": 3091,
      "Ġsomething": 3092,
      "å®Įæ¯ķ": 3093,
      "Ġdst": 3094,
      "æĳ©æīĺ": 3095,
      "proposal": 3096,
      "Bid": 3097,
      "á¤£": 3098,
      "available": 3099,
      "æĪĪ": 3100,
      "å¹Ł": 3101,
      "permission": 3102,
      "Ġkeeping": 3103,
      "Ġvisitor": 3104,
      "XFF": 3105,
      "æīįèĥ½": 3106,
      "Ġresolved": 3107,
      "Qualifier": 3108,
      "chtml": 3109,
      "åĲ¬åĪ°": 3110,
      "igration": 3111,
      "HY": 3112,
      "íĹ": 3113,
      "å®ļä»·": 3114,
      "åİ»": 3115,
      "é¦Ľ": 3116,
      "GONE": 3117,
      "sleep": 3118,
      "astr": 3119,
      "èĵª": 3120,
      "WithContext": 3121,
      "âĥĴ": 3122,
      "æŁĵ": 3123,
      "Ġ[](": 3124,
      "Allowed": 3125,
      "LES": 3126,
      "èĪ»": 3127,
      "èľ©": 3128,
      "æĸ°åŁİ": 3129,
      ">>(": 3130,
      "å«ł": 3131,
      "marks": 3132,
      "sso": 3133,
      "å¥ĭ": 3134,
      "rupted": 3135,
      "èĩ¯": 3136,
      "åĨ²çªģ": 3137,
      "iet": 3138,
      "äŁĮ": 3139,
      "åĳ¼åĲ¸": 3140,
      "æĹłæĸ°": 3141,
      ">]": 3142,
      "Ġdem": 3143,
      "Ùķ": 3144,
      "ĠfontSize": 3145,
      "'></": 3146,
      "ĠArrowBox": 3147,
      "Į": 3148,
      "Alert": 3149,
      "ĠkÃ¶nn": 3150,
      "éŁĶ": 3151,
      "ĠProvide": 3152,
      "ĠWrapper": 3153,
      "ancy": 3154,
      "latest": 3155,
      "dom": 3156,
      "ĠCollections": 3157,
      "ç±ļ": 3158,
      "Ġcanonical": 3159,
      "éŃŃ": 3160,
      "å¿ī": 3161,
      "à±ŀ": 3162,
      "âĺģ": 3163,
      "ã©¦": 3164,
      "ØĦ": 3165,
      "Ġ([": 3166,
      "è³ľ": 3167,
      "çĪĦ": 3168,
      "å§ĭç»Ī": 3169,
      "parents": 3170,
      "ç¢»": 3171,
      "çļĦå¥³": 3172,
      "ĠPattern": 3173,
      "äºĵ": 3174,
      "ĊĠĠĠĠĠĠĠĠĠĠĠĠĠĠĠĠĠĠĠĠĠĠĠĠĠĠ": 3175,
      "Wire": 3176,
      "Books": 3177,
      "Êļ": 3178,
      "è¢ł": 3179,
      "éª½": 3180,
      "éĢľ": 3181,
      "ä»Ļå¥³": 3182,
      "ci": 3183,
      "åł¶": 3184,
      "ä¸º": 3185,
      "pagination": 3186,
      "tx": 3187,
      "ØĮ": 3188,
      "â¤Ĵ": 3189,
      "ç¾ĬèĤī": 3190,
      ";',": 3191,
      "[$": 3192,
      "Ġshows": 3193,
      "à¼ī": 3194,
      "IV": 3195,
      "ä½ıåľ¨": 3196,
      "Ne": 3197,
      "Ġincoming": 3198,
      "ä¾¿æį·": 3199,
      "FILL": 3200,
      "icles": 3201,
      "tok": 3202,
      "Ò³": 3203,
      "stars": 3204,
      "çĩº": 3205,
      "ture": 3206,
      "é¹ļ": 3207,
      "ï¸ģ": 3208,
      "æİ¥å¾ħ": 3209,
      "å½ķ": 3210,
      "Ġrestart": 3211,
      "alent": 3212,
      "Ôĺ": 3213,
      "ÎĶ": 3214,
      "è¢Ĵ": 3215,
      "èĩ´çļĦ": 3216,
      "Linked": 3217,
      "ì§": 3218,
      "Ð¾Ð±": 3219,
      "guess": 3220,
      "äĢī": 3221,
      "é©¬æĭī": 3222,
      "cf": 3223,
      "åı¯è°ĵ": 3224,
      "Ġci": 3225,
      "ðŁĲŀ": 3226,
      "æĸľ": 3227,
      "Pass": 3228,
      "edit": 3229,
      "æ±¹": 3230,
      "é»Ľ": 3231,
      "oter": 3232,
      "light": 3233,
      "ìµ¸": 3234,
      "à²Į": 3235,
      "ç¿Ŀ": 3236,
      "ç¹Ŀ": 3237,
      "ç»Ļ": 3238,
      "ä¸Ĭä¸ĭ": 3239,
      "å¤§æķ°": 3240,
      "çļĦæľįåĬ¡": 3241,
      "ĠDelta": 3242,
      "ïģ¿": 3243,
      "æģĥ": 3244,
      "à¤ª": 3245,
      "ë§·": 3246,
      "é¥į": 3247,
      "î¢ŀ": 3248,
      "à¶Ľ": 3249,
      "åİĲ": 3250,
      "åĲ¬åĬĽ": 3251,
      "encia": 3252,
      "æ°ı": 3253,
      "Man": 3254,
      "ãģĽ": 3255,
      "Ġparse": 3256,
      "íĨ±": 3257,
      "æĵĿ": 3258,
      "ç¸º": 3259,
      "âĽ°": 3260,
      "ä¾Ł": 3261,
      "ç®Ĭ": 3262,
      "éĿŀå¸¸çļĦ": 3263,
      "t": 3264,
      "Ġlimitations": 3265,
      "éįĳ": 3266,
      "é¢º": 3267,
      "åĴ§": 3268,
      "èĵĵ": 3269,
      "bt": 3270,
      "ĠBAS": 3271,
      "è¯ķçĶ¨": 3272,
      "åŀ¾": 3273,
      "æī¾åĪ°": 3274,
      "×ļ": 3275,
      "å¾½": 3276,
      "able": 3277,
      "æľĪèĩ³": 3278,
      "é·Ģ": 3279,
      "éĳĩ": 3280,
      "Ġwe": 3281,
      "ãģĹãģ": 3282,
      "\\)</": 3283,
      "ãĤ«": 3284,
      "Similar": 3285,
      "ç¹Ī": 3286,
      "âĺ°": 3287,
      "×": 3288,
      "Printf": 3289,
      "ç©ĩ": 3290,
      "íĿ°": 3291,
      "Smart": 3292,
      "éĸŁ": 3293,
      "lua": 3294,
      "mm": 3295,
      "êŀĺ": 3296,
      "ĠTeams": 3297,
      "éĩ¾": 3298,
      "æ´Į": 3299,
      "åĦµ": 3300,
      "åĽ§": 3301,
      "ÊĽ": 3302,
      "thode": 3303,
      "emon": 3304,
      "çĶ¨æĪ·": 3305,
      "æ«¢": 3306,
      "ĠAbstract": 3307,
      "Learn": 3308,
      "Red": 3309,
      "Ġdemand": 3310,
      "Ġforeach": 3311,
      "RI": 3312,
      "ZONE": 3313,
      "phase": 3314,
      "Graphic": 3315,
      "çļĦäºĭ": 3316,
      "åĶĩ": 3317,
      "ç»³": 3318,
      "éĮĤ": 3319,
      "áĪ£": 3320,
      "reet": 3321,
      "è®¤åı¯": 3322,
      "æĹı": 3323,
      "î¡¬": 3324,
      "á¼ĵ": 3325,
      "âº§": 3326,
      "notNull": 3327,
      "é¬Ĭ": 3328,
      "åĩºå¸Ń": 3329,
      "éĹ®": 3330,
      "ery": 3331,
      "ĠKit": 3332,
      "è©Ķ": 3333,
      "åĨ²åĩ»": 3334,
      "çļĦè¡¨": 3335,
      "åīħ": 3336,
      "é´ª": 3337,
      "jupiter": 3338,
      "FileName": 3339,
      "JSON": 3340,
      "ĠAM": 3341,
      "×Ģ": 3342,
      "è«¹": 3343,
      "ä»¬ä¹Ł": 3344,
      "íĲĨ": 3345,
      "åĩºè½¨": 3346,
      "æ¿½": 3347,
      "Ġtransition": 3348,
      "å¬¯": 3349,
      "ĠRowBox": 3350,
      "++,": 3351,
      "separator": 3352,
      "è¡®": 3353,
      "Cred": 3354,
      "éĦ¨": 3355,
      "Ġinter": 3356,
      "MessageType": 3357,
      "ç¹±": 3358,
      "íĿ¡": 3359,
      "ä¸Ģå¼Ģ": 3360,
      "êĳĮ": 3361,
      "Æ³": 3362,
      "forecast": 3363,
      ">/<": 3364,
      "SerializeField": 3365,
      "ç´Ļ": 3366,
      "Ġfa": 3367,
      "aight": 3368,
      "Boot": 3369,
      "åº¦ä¸Ĭ": 3370,
      "setOn": 3371,
      "æ¸¸çİ©": 3372,
      "âĢª": 3373,
      "æĻĪ": 3374,
      "èĵŃ": 3375,
      "ðŁ§ķ": 3376,
      "Ġ'{": 3377,
      "irst": 3378,
      "Ġutf": 3379,
      "submenu": 3380,
      "ðŁķĲ": 3381,
      "é«ĵ": 3382,
      "education": 3383,
      "çĳ®": 3384,
      "ðŁ§¾": 3385,
      "pyx": 3386,
      "å²ĭ": 3387,
      "éĴ¶": 3388,
      "javax": 3389,
      "angle": 3390,
      "payload": 3391,
      "Availability": 3392,
      "wsz": 3393,
      "ãĥ¼ãĤ·": 3394,
      "IGNORE": 3395,
      "ç¼Ħ": 3396,
      "ãĳĩ": 3397,
      "à¦§": 3398,
      "ä¾Ĥ": 3399,
      "ç®ĸ": 3400,
      "ject": 3401,
      "ĠButton": 3402,
      "âĢ¹": 3403,
      "à«": 3404,
      "á¼Ħ": 3405,
      "Ġembodiment": 3406,
      "ĠíķĦ": 3407,
      "âĬ": 3408,
      "æı¯": 3409,
      "é¬ĩ": 3410,
      "fun": 3411,
      "åĲı": 3412,
      "Öĺ": 3413,
      "Ġê´Ģ": 3414,
      "æĬ¥åĪ°": 3415,
      "Ġrunner": 3416,
      "ëıĦ": 3417,
      "ĠREC": 3418,
      "åİİ": 3419,
      "âĸ£": 3420,
      "ç±¼": 3421,
      "Bone": 3422,
      "æĻµ": 3423,
      "ADC": 3424,
      "RECT": 3425,
      "Ġmysql": 3426,
      "SHOW": 3427,
      "EqualTo": 3428,
      "æıĲé«ĺäºĨ": 3429,
      "](../../../../": 3430,
      "åĤ¦": 3431,
      "logout": 3432,
      "copyright": 3433,
      "clusion": 3434,
      "Ġpac": 3435,
      "utom": 3436,
      "åįıåķĨ": 3437,
      "â¹Ĥ": 3438,
      "Ġcam": 3439,
      "Ġvotre": 3440,
      "é§©": 3441,
      "ä¯Ļ": 3442,
      "what": 3443,
      "pir": 3444,
      "ĠFeb": 3445,
      "å¸¬": 3446,
      "Bob": 3447,
      "ðŁıĩ": 3448,
      "íıĲ": 3449,
      "æĬ»": 3450,
      "ÐºÑĢÐ°": 3451,
      "âļĽ": 3452,
      "à¶ķ": 3453,
      "Sorry": 3454,
      "é£ļ": 3455,
      "áĴ§": 3456,
      "Ä¼": 3457,
      "Ġâľĵ": 3458,
      "ĠONLY": 3459,
      "ðŁ§¶": 3460,
      "ðŁĽ³": 3461,
      "çĮ¦": 3462,
      "Flat": 3463,
      "âĩĲ": 3464,
      "æ¢º": 3465,
      "ä¸īä¸ª": 3466,
      "ãĻŁ": 3467,
      "ocab": 3468,
      "è»": 3469,
      "Kafka": 3470,
      "è·¤": 3471,
      "çĿĭ": 3472,
      "epoch": 3473,
      "Ġflash": 3474,
      "ĠSOFTWARE": 3475,
      "noop": 3476,
      "ðŁĲ«": 3477,
      "åĦ«": 3478,
      "ĠCli": 3479,
      "æĹĥ": 3480,
      "Ġcomplexity": 3481,
      "æ§º": 3482,
      "ĠContributors": 3483,
      "Prefix": 3484,
      "Ôĩ": 3485,
      "çħº": 3486,
      "æĦķ": 3487,
      "Ġready": 3488,
      "èŃĺ": 3489,
      "UNET": 3490,
      "ĠAlloc": 3491,
      "folders": 3492,
      "æ¼ĺ": 3493,
      "î®": 3494,
      "à¤Ķ": 3495,
      "malink": 3496,
      "é¦ķ": 3497,
      "ought": 3498,
      "SerializedName": 3499,
      "ĠåĪĨ": 3500,
      "Õľ": 3501,
      "å¡Į": 3502,
      "çĶµä¿¡": 3503,
      "Ġfine": 3504,
      "ä¸Ģåı£": 3505,
      "åį·": 3506,
      "alert": 3507,
      "å¦¶": 3508,
      "defaults": 3509,
      "Ġrequests": 3510,
      "OTHER": 3511,
      "åĿ¡": 3512,
      "Ã©r": 3513,
      "æ¡²": 3514,
      "blk": 3515,
      "éµ¸": 3516,
      "INCLUDE": 3517,
      "Pane": 3518,
      "çº¢": 3519,
      "EDITOR": 3520,
      "èĩªå¾ĭ": 3521,
      "Ġending": 3522,
      "ä¿¶": 3523,
      "äį": 3524,
      "á¼´": 3525,
      "éĦ¾": 3526,
      "bsl": 3527,
      "ĠSubscription": 3528,
      "éĿ¯": 3529,
      "â¨±": 3530,
      "istics": 3531,
      "é¤Ĳåİħ": 3532,
      "äº¤ç»Ļ": 3533,
      "æĦĦ": 3534,
      "Ġcomponents": 3535,
      "èĲ¡": 3536,
      "Ġnamed": 3537,
      "ðŁ¤Ļ": 3538,
      "éĨ¤": 3539,
      "links": 3540,
      "á©": 3541,
      "Ġcy": 3542,
      "åĬ³åĬ¨": 3543,
      "ç®Ľ": 3544,
      "â±Ħ": 3545,
      "èµ½": 3546,
      "çķĩ": 3547,
      "starting": 3548,
      "Ġ....": 3549,
      "Ġnid": 3550,
      "íķı": 3551,
      "æ©Ĵ": 3552,
      "å¼Ĩ": 3553,
      "getMethod": 3554,
      "Never": 3555,
      "Ý¨": 3556,
      "obj": 3557,
      "Parts": 3558,
      "ç¦Ĺ": 3559,
      "èĥĻ": 3560,
      "åĿĤ": 3561,
      "æĬĪ": 3562,
      "ä¦µ": 3563,
      "IZED": 3564,
      "æĿ¡ä»¶": 3565,
      "DEBUG": 3566,
      "æ¬Ĥ": 3567,
      "äĦ¦": 3568,
      "Ġenough": 3569,
      "çİ»": 3570,
      "èĹģ": 3571,
      "æ£²": 3572,
      "ĠScience": 3573,
      "imshow": 3574,
      "ä¾": 3575,
      "éĺ©": 3576,
      "stdout": 3577,
      "Ľi": 3578,
      "å°Ħæīĭ": 3579,
      "ä¸ĢçĻ¾": 3580,
      "æ¾Ĩ": 3581,
      "mdash": 3582,
      "éĿ¢éĥ¨": 3583,
      "£": 3584,
      "á¶": 3585,
      "ĠIND": 3586,
      "åįİåįĹ": 3587,
      "ç«¥": 3588,
      "åįķè¯į": 3589,
      "Ġwind": 3590,
      "Ġtraining": 3591,
      "ç¯ħ": 3592,
      "ĠHttpClient": 3593,
      "Recur": 3594,
      "ç§ģä¿¡": 3595,
      "textContent": 3596,
      "ekyll": 3597,
      "é¯¹": 3598,
      "Position": 3599,
      "áĩļ": 3600,
      "ëĶ": 3601,
      "ĠAUTHORS": 3602,
      "Ġdecor": 3603,
      "èįĢ": 3604,
      "çİĲ": 3605,
      "æ°´åĪ©": 3606,
      "åĪĬ": 3607,
      "áĺĲ": 3608,
      "è©¼": 3609,
      "Pres": 3610,
      "Converter": 3611,
      "supp": 3612,
      "ç®Ķ": 3613,
      "èĺ¹": 3614,
      "éįĢ": 3615,
      "èŀĴ": 3616,
      "èĢ¦": 3617,
      "îĽĨ": 3618,
      "ìŀĪ": 3619,
      "+": 3620,
      "åĸ±": 3621,
      "ðŁĢĬ": 3622,
      "îĹĵ": 3623,
      "èĸ¹": 3624,
      "Finished": 3625,
      "éµ¿": 3626,
      "æĪĲæľ¬": 3627,
      "îĭ": 3628,
      "èł¹": 3629,
      "Ġautocomplete": 3630,
      "é¡Ń": 3631,
      "Event": 3632,
      "icrosoft": 3633,
      "copies": 3634,
      "ç¢®": 3635,
      "Ù¹": 3636,
      "è¿Ļæł·æĤ¨": 3637,
      "ĠEXEMPLARY": 3638,
      "Ġsoon": 3639,
      "Ġsr": 3640,
      "å¡Ĥ": 3641,
      "å¯¹åħ¶": 3642,
      "CLK": 3643,
      "æĸ¯çī¹": 3644,
      "segment": 3645,
      "îĤ¤": 3646,
      "æĽ´å¥½åľ°": 3647,
      "awa": 3648,
      "îĬ´": 3649,
      "ĠComp": 3650,
      "Ġ<<\"": 3651,
      "åĩª": 3652,
      "îĤĥ": 3653,
      "è´¡çĮ®": 3654,
      "GetObject": 3655,
      "Ġè¿ĶåĽŀ": 3656,
      "åŀ¬": 3657,
      "Ġìł": 3658,
      "åľĻ": 3659,
      "ãª": 3660,
      "ïĢĨ": 3661,
      "Ġë§Į": 3662,
      "æ¸¶": 3663,
      "åĢĲ": 3664,
      "å¨¼": 3665,
      "éĤŃ": 3666,
      "æ¼Ĩ": 3667,
      "index": 3668,
      "Ġprofile": 3669,
      "onError": 3670,
      "îĺ¶": 3671,
      "unes": 3672,
      "èĲ¥åķĨ": 3673,
      "èĭĺ": 3674,
      "Ġagent": 3675,
      ",\"\\": 3676,
      "å¨§": 3677,
      "Ġdisplays": 3678,
      "âŀ¯": 3679,
      "å¹°": 3680,
      "ĠIntegration": 3681,
      "æºĽ": 3682,
      "îĲģ": 3683,
      "Ġrestricted": 3684,
      "ä¸įç®¡æĺ¯": 3685,
      "')),": 3686,
      "à¨¾": 3687,
      "Ġtriggered": 3688,
      "ãĤĦ": 3689,
      "ïĳį": 3690,
      "æł¸å¿ĥ": 3691,
      "ZW": 3692,
      "ONY": 3693,
      "æ³·": 3694,
      "æĲŀå®ļ": 3695,
      "postinc": 3696,
      "vation": 3697,
      "éħ»": 3698,
      "çıı": 3699,
      "volumes": 3700,
      "ç»ĵæĿŁ": 3701,
      "çĲ¤": 3702,
      "ĠInf": 3703,
      "Amer": 3704,
      "åį«æĺŁ": 3705,
      "ðŁ¤¯": 3706,
      "Daily": 3707,
      "QO": 3708,
      "áĳ¿": 3709,
      "æĺİæĺ¾": 3710,
      "unsubscribe": 3711,
      "âĻ¯": 3712,
      "ĠBuffer": 3713,
      "compute": 3714,
      "On": 3715,
      "æħ°éĹ®": 3716,
      "æľĢæĸ°": 3717,
      "ote": 3718,
      "ĠElasticsearch": 3719,
      "äİ±": 3720,
      "Ġcomplet": 3721,
      "éĽĨåĽ¢": 3722,
      "æİ¥çĿĢ": 3723,
      "çģ¹": 3724,
      "Î±": 3725,
      "åĲĮæŃ¥": 3726,
      "Ġdatabases": 3727,
      "ãĥ³ãĥī": 3728,
      "ÄĤ": 3729,
      "ĠSignal": 3730,
      "ä¼ī": 3731,
      "ïĤ£": 3732,
      "îł»": 3733,
      "å§Ĵ": 3734,
      "è¯Ħä¼°": 3735,
      "Roy": 3736,
      "å¶ŀ": 3737,
      "åĪĨæīĭ": 3738,
      "î©": 3739,
      "Ġdesktop": 3740,
      "anguage": 3741,
      "ãķ·": 3742,
      "ApiClient": 3743,
      "æħ": 3744,
      "ðŁħĸ": 3745,
      "ais": 3746,
      "Saved": 3747,
      "àł¾": 3748,
      "çµ£": 3749,
      "æŁı": 3750,
      "èĥĽ": 3751,
      "ãĳ¹": 3752,
      "ENER": 3753,
      "endian": 3754,
      "îĪ¼": 3755,
      "----------------------------------------------------------------------": 3756,
      "åĪĳäºĭ": 3757,
      "amount": 3758,
      "ç¨į": 3759,
      "Ġswitch": 3760,
      "dac": 3761,
      "female": 3762,
      "èĥ½è®©": 3763,
      "Ġpandas": 3764,
      "çĶº": 3765,
      "Ġconstructed": 3766,
      "íĿĲ": 3767,
      "å£«åħµ": 3768,
      ";;;;;;;;;;;;;;;;": 3769,
      "ä»ĸåľ¨": 3770,
      "è´Ń": 3771,
      "à£ª": 3772,
      "mitre": 3773,
      "éĬĸ": 3774,
      "áı²": 3775,
      "HR": 3776,
      "éĮı": 3777,
      "ãĴ¸": 3778,
      "é¢ĺçĽ®": 3779,
      "æĹłåĬĽ": 3780,
      "ALS": 3781,
      "SAFE": 3782,
      "ïĵ¡": 3783,
      "ĠCH": 3784,
      "Matrix": 3785,
      "çļĦç¤¾ä¼ļ": 3786,
      "ìĤĹ": 3787,
      "Ġdig": 3788,
      "Ġtechnology": 3789,
      "åĥĽ": 3790,
      "é´ħ": 3791,
      "ðĵĢ½": 3792,
      "è¿ĩæ¸¡": 3793,
      "åĨħéĥ¨": 3794,
      "processing": 3795,
      "æ¡´": 3796,
      "èıĨ": 3797,
      "æ¦³": 3798,
      "éľĪ": 3799,
      "ëªĦ": 3800,
      "abit": 3801,
      "æı»": 3802,
      "É·": 3803,
      "âŀĿ": 3804,
      "æłĩçŃ¾": 3805,
      "äººæĸĩ": 3806,
      "éŀ¹": 3807,
      "æ«¦": 3808,
      "doctor": 3809,
      "æ¼Ĥ": 3810,
      "ä¸Ĭä¸Ģ": 3811,
      "èĴĹ": 3812,
      "èĹį": 3813,
      "âĸŀ": 3814,
      "Auth": 3815,
      "çĭ®åŃĲ": 3816,
      "flat": 3817,
      "æıĲä¾ĽäºĨ": 3818,
      "çĳ£": 3819,
      "ä¹ĭåīį": 3820,
      "ĠENGINE": 3821,
      "heading": 3822,
      "Deferred": 3823,
      "éĻ²": 3824,
      "çįĢ": 3825,
      "îĻ«": 3826,
      "âĸ¡": 3827,
      "'%": 3828,
      "ija": 3829,
      "ĠStructure": 3830,
      "æĽł": 3831,
      "îĥĪ": 3832,
      "LS": 3833,
      "éĢ£": 3834,
      "îĲĭ": 3835,
      "ç§Ļ": 3836,
      "âİĽ": 3837,
      "à¾·": 3838,
      "ĠMu": 3839,
      "groups": 3840,
      "eref": 3841,
      "readthedocs": 3842,
      "èªĤ": 3843,
      "ä¼İ": 3844,
      "à®ħ": 3845,
      "Ġsplit": 3846,
      "ðŁĺ»": 3847,
      "çı£": 3848,
      "Buffer": 3849,
      "ĠZip": 3850,
      "ipy": 3851,
      "ä¸Ģå¤©": 3852,
      "àŃ¨": 3853,
      "åķ®": 3854,
      "éŁĤ": 3855,
      "æł¯": 3856,
      "ä»ħéĻĲ": 3857,
      "æĪĳçİ°": 3858,
      "sms": 3859,
      "é²ı": 3860,
      "Ġonly": 3861,
      "áĢī": 3862,
      "é¢ĦæĬ¥": 3863,
      "è¾ĥå¤§": 3864,
      "éŃ®": 3865,
      "Äĸ": 3866,
      "ç±Ľ": 3867,
      "Ġheaders": 3868,
      "êĳŀ": 3869,
      "íĳ¹": 3870,
      "æĹ©é¤Ĳ": 3871,
      "keydown": 3872,
      "ê²¬": 3873,
      "à¨¨": 3874,
      "éĻĸ": 3875,
      "collections": 3876,
      "ĠDevice": 3877,
      "zero": 3878,
      "ĠValues": 3879,
      "Ġmux": 3880,
      "SITE": 3881,
      "ccion": 3882,
      "åĴļ": 3883,
      "KW": 3884,
      "į°ìĿ´íĦ°": 3885,
      "è¿ĩæķı": 3886,
      "éĳ²": 3887,
      "éĥ½æĺ¯åľ¨": 3888,
      "Ġmatch": 3889,
      "ä¸ĭæĸ¹": 3890,
      "interrupt": 3891,
      "æĸĨ": 3892,
      "é¡¹çĽ®": 3893,
      "ĠcancellationToken": 3894,
      "ÑĥÑĤ": 3895,
      "ĠForce": 3896,
      "Host": 3897,
      "Inlining": 3898,
      "î¦ľ": 3899,
      "Ġthen": 3900,
      "Ġeas": 3901,
      "UserName": 3902,
      "()];": 3903,
      "çĶµæ¢¯": 3904,
      "èİµ": 3905,
      "é¤Į": 3906,
      "Ġê³µ": 3907,
      "{$": 3908,
      "á¼¢": 3909,
      "å»¿": 3910,
      "::{": 3911,
      "Ìľ": 3912,
      "QU": 3913,
      "Ġav": 3914,
      "bp": 3915,
      "è¶©": 3916,
      "Ï¨": 3917,
      "é½ĺ": 3918,
      "éĺ²å¾¡": 3919,
      "ÑĢÐ°Ð": 3920,
      "cdb": 3921,
      "Users": 3922,
      "bump": 3923,
      "oly": 3924,
      "é¢Ĩ": 3925,
      "è¼ģ": 3926,
      "èµ·çļĦ": 3927,
      "æ¸ĹéĢı": 3928,
      "æ©Ģ": 3929,
      "ðĴĢŃ": 3930,
      "èħ¥": 3931,
      "Meas": 3932,
      "âĹī": 3933,
      "ä¼Į": 3934,
      "îħµ": 3935,
      "àłħ": 3936,
      "ðŁļ«": 3937,
      "âŁ¿": 3938,
      "éĺķ": 3939,
      "fis": 3940,
      "áĭ·": 3941,
      "mysql": 3942,
      "Ġ'[": 3943,
      "LETE": 3944,
      "æªĭ": 3945,
      "åŃ¦æł¡çļĦ": 3946,
      "ãļ¢": 3947,
      "éļ¦": 3948,
      "Rpc": 3949,
      "Ġoccurred": 3950,
      "éĮ¾": 3951,
      "æ±Ĵ": 3952,
      "åĺ¨": 3953,
      "çĮ¶": 3954,
      "æĿĥ": 3955,
      "Ġtechn": 3956,
      "Ġgeneric": 3957,
      "äº¿": 3958,
      "è¶»": 3959,
      "áīħ": 3960,
      "ðŁĹ½": 3961,
      "èĨŀ": 3962,
      "å¤ļåľ°": 3963,
      "èŃ¹": 3964,
      "è¸´": 3965,
      "æİ¯": 3966,
      "åķĨåºĹ": 3967,
      "Ġextern": 3968,
      "Ġbot": 3969,
      "çīµ": 3970,
      "æĽ¡": 3971,
      "å¾Īç®Ģåįķ": 3972,
      "iry": 3973,
      "à±¡": 3974,
      "Ġvariance": 3975,
      "åĪĪ": 3976,
      "ĠUSB": 3977,
      "ìĦĢ": 3978,
      "âİ¢": 3979,
      "éģĴ": 3980,
      "ĠToggle": 3981,
      "ä¹ı": 3982,
      "ã¸Ļ": 3983,
      "ITER": 3984,
      "é¾Ł": 3985,
      "çĬ¶æĢģ": 3986,
      "çĲ²": 3987,
      "å¯į": 3988,
      "åħĮ": 3989,
      "ãĥĲ": 3990,
      "BUTTON": 3991,
      "Tcp": 3992,
      "ç°Ŀ": 3993,
      "é¹Ĥ": 3994,
      "LN": 3995,
      "ç²Ļ": 3996,
      "éĤ¹": 3997,
      "ìºĲ": 3998,
      "ĠR": 3999,
      "lid": 4000,
      "éª¼": 4001,
      "éħ«": 4002,
      "é®ĵ": 4003,
      "áģļ": 4004,
      "ĠGPL": 4005,
      "ìħ¸": 4006,
      "Ġven": 4007,
      "term": 4008,
      "Found": 4009,
      "çĩ¥": 4010,
      "ç¶¸": 4011,
      "åĹĸ": 4012,
      "å¾į": 4013,
      "ç¹©": 4014,
      "èİ¬": 4015,
      "Ġregist": 4016,
      "glyph": 4017,
      "MULT": 4018,
      "ÏĻ": 4019,
      "conda": 4020,
      "licated": 4021,
      "}%": 4022,
      "çļ": 4023,
      "é»¸": 4024,
      "å¼ĤæĢ§": 4025,
      "fg": 4026,
      "æ´Ĺè¡£": 4027,
      "junit": 4028,
      "âĲĢ": 4029,
      "fff": 4030,
      "îĴĹ": 4031,
      "èĻģ": 4032,
      "Results": 4033,
      "ç·°": 4034,
      "é©ķ": 4035,
      "ïĦĩ": 4036,
      "éĿĥ": 4037,
      "ĠSat": 4038,
      "CNN": 4039,
      "Øł": 4040,
      "æĶĩ": 4041,
      "ĠRequest": 4042,
      "ç§Ł": 4043,
      "åģŀ": 4044,
      "é¡Ĭ": 4045,
      "îĹ°": 4046,
      "Ġcolon": 4047,
      "ä¸İäºº": 4048,
      "ĠVue": 4049,
      "NON": 4050,
      "ë®¨": 4051,
      "çļĦä½ľ": 4052,
      "å®¨": 4053,
      "PT": 4054,
      "ðŁĺ¢": 4055,
      "çıĳ": 4056,
      "Ġwasn": 4057,
      "åĨī": 4058,
      "å¯´": 4059,
      "æĺ¯ä»Ģ": 4060,
      "éīĬ": 4061,
      "čĊčĊĠĠĠĠĠĠĠĠĠĠĠĠĠĠĠĠĠĠĠĠĠĠĠ": 4062,
      "MARY": 4063,
      "äĮĢ": 4064,
      "ç¤¾äº¤": 4065,
      "Ġtls": 4066,
      "Ġcx": 4067,
      "åľĽ": 4068,
      "è°¤": 4069,
      "à¨¦": 4070,
      "åĮĸå¦Ĩ": 4071,
      "íĳļ": 4072,
      "êĢ£": 4073,
      "éĭķ": 4074,
      "å°¶": 4075,
      "Ó¥": 4076,
      "å§±": 4077,
      "Ġpredicate": 4078,
      "èŁł": 4079,
      "å¼Ģæĭĵ": 4080,
      "ularity": 4081,
      "é¥¹": 4082,
      "ĠSTDMETHODCALLTYPE": 4083,
      "Md": 4084,
      "å¦¹åŃĲ": 4085,
      "ðŁĽ°": 4086,
      "theta": 4087,
      "((((": 4088,
      "èĨ": 4089,
      "èĽµ": 4090,
      "Thumb": 4091,
      "ObjectType": 4092,
      "connections": 4093,
      "èıľåįķ": 4094,
      "ä¸Ģæł·": 4095,
      "ĠÑı": 4096,
      "èī°": 4097,
      "à£»": 4098,
      "Ð½": 4099,
      "ĠDi": 4100,
      "æŀ¶": 4101,
      "çĵŃ": 4102,
      "ïģĤ": 4103,
      "î²Ķ": 4104,
      "ðŁĺ°": 4105,
      "è¯»èĢħ": 4106,
      "æĽ´é«ĺ": 4107,
      "è¦»": 4108,
      "itos": 4109,
      "èĢĮæĪĲ": 4110,
      "æ´Ĺæīĭ": 4111,
      "ĠSMS": 4112,
      "Ġ\\[": 4113,
      "é¤£": 4114,
      "æ¨ı": 4115,
      ").": 4116,
      "setup": 4117,
      "æĽĹ": 4118,
      "äº²": 4119,
      "ĠPress": 4120,
      "çĶ·äººçļĦ": 4121,
      "ï¼Ľ": 4122,
      "îķĻ": 4123,
      "ç¼Ļ": 4124,
      "åĮĭ": 4125,
      "æĸ°è½¦": 4126,
      "íĬ¸": 4127,
      "Ġfee": 4128,
      "VERIFY": 4129,
      "çĦĦ": 4130,
      ")^": 4131,
      "êĪ¹": 4132,
      "èĤį": 4133,
      "æľĢåħ·": 4134,
      "cm": 4135,
      "Hierarchy": 4136,
      "vectors": 4137,
      "éĦĢ": 4138,
      "æ»¨": 4139,
      "Ġ/*": 4140,
      "Routes": 4141,
      "REAM": 4142,
      "DTD": 4143,
      "æĹ¶éĹ´çļĦ": 4144,
      "åĵ§": 4145,
      "ïĤļ": 4146,
      "xec": 4147,
      "ãģ¤ãģĦãģ¦": 4148,
      "åłĺ": 4149,
      "æ«¿": 4150,
      "å³¦": 4151,
      "àªŁ": 4152,
      "è¢ķ": 4153,
      "Clear": 4154,
      "ðŁĲ®": 4155,
      "èĵĲ": 4156,
      "è¦ħ": 4157,
      "é·ı": 4158,
      "åĬłå·¥": 4159,
      "Ê¾": 4160,
      "Ü«": 4161,
      "ä¸Ĭå¸Ĥ": 4162,
      "there": 4163,
      "dad": 4164,
      "ðŁļħ": 4165,
      "èĴŃ": 4166,
      "Î«": 4167,
      "ĠCOPYRIGHT": 4168,
      "éĶĿ": 4169,
      "ĠOriginal": 4170,
      "Ġmagnitude": 4171,
      "Ġ=>": 4172,
      "è¹ª": 4173,
      "çĩł": 4174,
      "ĠIDs": 4175,
      "æ¶ķ": 4176,
      "å£ĵ": 4177,
      "æĲĶ": 4178,
      "filter": 4179,
      "ä¹¦ä¸Ń": 4180,
      "lour": 4181,
      "Ġimportant": 4182,
      "ĠĠĠĠĠĠĠĠĠĠĠĠĠĠĠĠĠĠ": 4183,
      "ïĢ¦": 4184,
      "å§ĵåĲį": 4185,
      "ç¦ģ": 4186,
      "Ġhang": 4187,
      "ĠModel": 4188,
      "sl": 4189,
      "çļĦäººç¾¤": 4190,
      "Operator": 4191,
      "æĮħ": 4192,
      "----------": 4193,
      "êī»": 4194,
      "edia": 4195,
      "çĴĻ": 4196,
      "è®¾è®¡çļĦ": 4197,
      "Ġagreement": 4198,
      "éĢĥ": 4199,
      "åĬµ": 4200,
      "æľĭåıĭåľĪ": 4201,
      "é«½": 4202,
      "ðŁ¤¨": 4203,
      "èĵĴ": 4204,
      "ÄŁi": 4205,
      "éŁ©": 4206,
      "ðŁ¥ľ": 4207,
      "=$(": 4208,
      "ĠPol": 4209,
      "å³Ķ": 4210,
      "éıĪ": 4211,
      "ĠĊĉ": 4212,
      "copes": 4213,
      "Ġhdr": 4214,
      "Strategy": 4215,
      "Ġchain": 4216,
      "íĺĳ": 4217,
      "åĨĩ": 4218,
      "åĺĺ": 4219,
      "ã¸¦": 4220,
      "ä¸Ģå°ı": 4221,
      "åĢĳ": 4222,
      "â£ĩ": 4223,
      "tras": 4224,
      "ball": 4225,
      "cit": 4226,
      "å²«": 4227,
      "èĹ¦": 4228,
      "Encrypted": 4229,
      "(`/": 4230,
      "å¾Ĳå·ŀ": 4231,
      "ĊĠĠĠĠĠĠĊĠĠĠĠĠ": 4232,
      "ì½ľ": 4233,
      "ïĤ«": 4234,
      "ĠBinary": 4235,
      "âļĳ": 4236,
      "Ú": 4237,
      "âĺ±": 4238,
      "å°Ļ": 4239,
      "áĲ£": 4240,
      "matching": 4241,
      "prometheus": 4242,
      "åİķ": 4243,
      "é®Ī": 4244,
      "æłĸ": 4245,
      "çħ¹": 4246,
      "setDefault": 4247,
      "ĠĠĠĠĠĠĠĠĠĠ": 4248,
      "ìĹ": 4249,
      "î¥´": 4250,
      "îı¡": 4251,
      "åıĻ": 4252,
      "\">:</": 4253,
      "Ġproblem": 4254,
      "å®īåħ¨çļĦ": 4255,
      "============": 4256,
      "ĠRPC": 4257,
      "QString": 4258,
      "gfx": 4259,
      "ĠJust": 4260,
      "jay": 4261,
      "îĹĭ": 4262,
      "è¿ŀæİ¥": 4263,
      "îħŃ": 4264,
      "æĸĤ": 4265,
      "èĻ´": 4266,
      "æĹ¶å¸¸": 4267,
      "åĬĤ": 4268,
      "ä¹Łå¾Ī": 4269,
      "é¡¯": 4270,
      "merge": 4271,
      "webkit": 4272,
      "Ġranges": 4273,
      "çªĬ": 4274,
      "ïĮ²": 4275,
      "ViewGroup": 4276,
      "ïī¸": 4277,
      "ibly": 4278,
      "æ¼¸": 4279,
      "éķį": 4280,
      "çĥ²": 4281,
      "é¢ķ": 4282,
      "æĬ§": 4283,
      "âĲ¦": 4284,
      "æºĶ": 4285,
      "Ð°Ðº": 4286,
      "ä¯": 4287,
      "vised": 4288,
      "éĨµ": 4289,
      "ĠXP": 4290,
      "Ġreport": 4291,
      "æ²¡ä»Ģ": 4292,
      "ä¸ºèĩª": 4293,
      "äº²æĪļ": 4294,
      "uracy": 4295,
      "Change": 4296,
      "áª£": 4297,
      "åħ³å¿ĥ": 4298,
      "ĠFl": 4299,
      "å¤ĸéĥ¨": 4300,
      "è»Ģ": 4301,
      "ĠDISCL": 4302,
      "è±µ": 4303,
      "åĲĮä¸Ģä¸ª": 4304,
      "Ġ'@": 4305,
      "rieve": 4306,
      "éķķ": 4307,
      "çŃ¾ç½²": 4308,
      "ë½Ģ": 4309,
      "èĹķ": 4310,
      "åıĥ": 4311,
      "èĹ§": 4312,
      "æī§åĭ¤": 4313,
      "]],": 4314,
      "ĊĊĠĠĠĠĠĠĠĠĠĠĠĠĠĠĠĠĠĠĠ": 4315,
      "ensure": 4316,
      "ä»ĸæĺ¯": 4317,
      "USER": 4318,
      "pane": 4319,
      "è§Ħæł¼": 4320,
      "****/": 4321,
      "Ġdash": 4322,
      "Ġconstraint": 4323,
      "éĬº": 4324,
      "Ġchamp": 4325,
      "éº´": 4326,
      "Ġmid": 4327,
      "Ġended": 4328,
      "å¥Ł": 4329,
      "ðŁı®": 4330,
      "æ£ķ": 4331,
      "æı¸": 4332,
      "á¼¦": 4333,
      "æľĭ": 4334,
      "SendMessage": 4335,
      "æĢ¥æķĳ": 4336,
      "microsoft": 4337,
      "â®ļ": 4338,
      "éĸħ": 4339,
      "Ġglyph": 4340,
      "âĪª": 4341,
      "lock": 4342,
      "ĠCOPY": 4343,
      "èģ»": 4344,
      "æ¿Ģ": 4345,
      "ïĲŁ": 4346,
      "collect": 4347,
      "str": 4348,
      "UC": 4349,
      "è¯ķçĤ¹": 4350,
      "locfileid": 4351,
      "Ġkr": 4352,
      "ïĥĭ": 4353,
      "æĪ¿æºĲ": 4354,
      "å°ģéĹŃ": 4355,
      "uuid": 4356,
      "ä¸»åĬĽ": 4357,
      "weak": 4358,
      "=\"_": 4359,
      "ĠContract": 4360,
      "å¾®ä¿¡åı·": 4361,
      "âĲĿ": 4362,
      "SK": 4363,
      "æ¶©": 4364,
      "agen": 4365,
      "Distribution": 4366,
      "ĠALL": 4367,
      "ĠProvider": 4368,
      "è¿Ļä½į": 4369,
      "ÅĦ": 4370,
      "openstack": 4371,
      "æĩ¼": 4372,
      "Fam": 4373,
      "InvariantCulture": 4374,
      "Ý¢": 4375,
      "Ïģ": 4376,
      "âĬİ": 4377,
      "çĲĽ": 4378,
      "ç§¦": 4379,
      "setPosition": 4380,
      ">@[+][<": 4381,
      "iven": 4382,
      "èĲ¦": 4383,
      "çļĦçłĶ": 4384,
      "èµī": 4385,
      "ì¤Į": 4386,
      "áıŁ": 4387,
      "åĲįåįķ": 4388,
      "aris": 4389,
      "â¸ĥ": 4390,
      "Ġ%(": 4391,
      "ä¹ª": 4392,
      "ContainsKey": 4393,
      "êħ§": 4394,
      "èŀĮ": 4395,
      "âģ³": 4396,
      "æĥĮ": 4397,
      "ĠJsonObject": 4398,
      "Replica": 4399,
      "Ġ../../": 4400,
      "æ½°": 4401,
      "ãĹ²": 4402,
      "Øª": 4403,
      "Her": 4404,
      "çĳĩ": 4405,
      "çģĭ": 4406,
      "îĢ¥": 4407,
      "sz": 4408,
      "unist": 4409,
      "áĳ³": 4410,
      "ê¡¦": 4411,
      "ì±Ħ": 4412,
      "RSA": 4413,
      "Ġrouting": 4414,
      "networks": 4415,
      "å¸¸åĬ¡": 4416,
      "ĠÑģ": 4417,
      "ðŁĳĹ": 4418,
      "è¿Ļä¸ī": 4419,
      "parentNode": 4420,
      "ë¦¬": 4421,
      "MENT": 4422,
      "èĴ³": 4423,
      "Pa": 4424,
      "Ġcontr": 4425,
      "æĤĪ": 4426,
      "æ³Ĵ": 4427,
      "DFS": 4428,
      "Formatted": 4429,
      "î¶İ": 4430,
      "CLR": 4431,
      "Ġpeg": 4432,
      "ĠAND": 4433,
      "ĠoluÅŁtur": 4434,
      "ç«Ī": 4435,
      "âĺ": 4436,
      "Ï©": 4437,
      "ðŁ¦ī": 4438,
      "åŃ¤": 4439,
      "ð¤«Ĭ": 4440,
      "î®Ĳ": 4441,
      "ç»ĨèĬĤ": 4442,
      "IDs": 4443,
      "Å©": 4444,
      "entifier": 4445,
      "äº§çĶŁçļĦ": 4446,
      "ç§ħ": 4447,
      "Viewer": 4448,
      "æ¥·": 4449,
      "åĦħ": 4450,
      "çĹĳ": 4451,
      "æ¯ķä¸ļåĲİ": 4452,
      "Ġsk": 4453,
      "gh": 4454,
      "î¡¶": 4455,
      "åĸľæĤ¦": 4456,
      "êİ½": 4457,
      "Your": 4458,
      "esp": 4459,
      "é°Ń": 4460,
      "Ġagg": 4461,
      "ADDING": 4462,
      "éīĢ": 4463,
      "ðŁ¤¹": 4464,
      "SCH": 4465,
      "æĹ¶çļĦ": 4466,
      "Ġachieve": 4467,
      "æ¢«": 4468,
      "åīįè¡Į": 4469,
      "áķĶ": 4470,
      "æ¬Ł": 4471,
      "åĹ½": 4472,
      "ä½ĸ": 4473,
      "å¤§åĵ¥": 4474,
      "ä¸ľåįĹ": 4475,
      "world": 4476,
      "æĨĦ": 4477,
      "ãŀ®": 4478,
      "è¯·å¤§": 4479,
      "Changes": 4480,
      "ð¥Ķ²": 4481,
      "QUOT": 4482,
      "ê½Ĥ": 4483,
      "êº¾": 4484,
      "ze": 4485,
      "Ġverify": 4486,
      "flt": 4487,
      "éĹ¯": 4488,
      "çĩĢ": 4489,
      "áĪ¹": 4490,
      "hugo": 4491,
      "Ġeste": 4492,
      "å¼Ģåı£": 4493,
      "Ġsomehow": 4494,
      "åİŁä»¶": 4495,
      "âŀ¢": 4496,
      "éĶ«": 4497,
      "è¸Ī": 4498,
      "chan": 4499,
      "Ġvous": 4500,
      "ĠSerialize": 4501,
      "ĉĉĉĉĉĉĉ": 4502,
      "àł¸": 4503,
      "ĠTur": 4504,
      "åİ»åģļ": 4505,
      "åĪĽæĦı": 4506,
      "åħħæ»¡": 4507,
      "ĠMor": 4508,
      "Ġencour": 4509,
      "àº§": 4510,
      "åį¬": 4511,
      "symbol": 4512,
      "Compute": 4513,
      "Mar": 4514,
      "RequestMapping": 4515,
      "yang": 4516,
      "invalidate": 4517,
      "ìĶģ": 4518,
      "fontSize": 4519,
      "çµ©": 4520,
      "ĠDeployment": 4521,
      "èİ»": 4522,
      "]==": 4523,
      "adata": 4524,
      "å¾¾": 4525,
      "ìĮķ": 4526,
      "queeze": 4527,
      "ïĺ¡": 4528,
      "è¯§": 4529,
      "î´¼": 4530,
      "å®¹éĩı": 4531,
      "é»Ĥ": 4532,
      "QC": 4533,
      "Ð¦": 4534,
      "MGR": 4535,
      "ïĵ¹": 4536,
      "Ġgem": 4537,
      "EK": 4538,
      "åĺĪ": 4539,
      "ĠĠĠĠĠĠĠĠĠĠĠĠĠĠĠĠĠĠĠ": 4540,
      "Ã³w": 4541,
      "ierung": 4542,
      "é¡Ķ": 4543,
      "''": 4544,
      "Attachments": 4545,
      "é¹Ĵ": 4546,
      "à©«": 4547,
      "âĵŃ": 4548,
      "åĨŃ": 4549,
      "ControlPoint": 4550,
      "çĸ¨": 4551,
      "èĬ±äºĨ": 4552,
      "à¯ı": 4553,
      "á¹ħ": 4554,
      "ðŁ¦¦": 4555,
      "â»Ŀ": 4556,
      "iano": 4557,
      "ë¡": 4558,
      "ĠMult": 4559,
      "Ġexpires": 4560,
      "ëģĮ": 4561,
      "åĽ¾æĸĩ": 4562,
      "æĬķèµĦ": 4563,
      ")=>{": 4564,
      "âģĳ": 4565,
      "icing": 4566,
      "îĺ«": 4567,
      "dictionary": 4568,
      "èİ¸": 4569,
      "*/,": 4570,
      "Employ": 4571,
      "à¨ł": 4572,
      "%;": 4573,
      "ëĴ¤": 4574,
      "âįĥ": 4575,
      "è½®èĥİ": 4576,
      "Ĥ": 4577,
      "')[": 4578,
      "æĻ©": 4579,
      "èŀ¤": 4580,
      "Õ¯": 4581,
      "åĲĮåı·": 4582,
      "ç®Ĺæľº": 4583,
      "Ġtolerance": 4584,
      "ÐĢ": 4585,
      "Registers": 4586,
      "åĸĳ": 4587,
      "tta": 4588,
      "Ġsession": 4589,
      "inas": 4590,
      "ç·©": 4591,
      "ences": 4592,
      "æ¶ĭ": 4593,
      "è¼½": 4594,
      "ðĴĤį": 4595,
      "flush": 4596,
      "âĹĴ": 4597,
      "ïħħ": 4598,
      "æĶ¶éĽĨ": 4599,
      "ä¸İæĪĳ": 4600,
      "arry": 4601,
      "ĠTime": 4602,
      "åĹĻ": 4603,
      "æŃ¢": 4604,
      "Ġä»Ĭ": 4605,
      "ðŁ¤º": 4606,
      "ecall": 4607,
      "ãĹ": 4608,
      "lear": 4609,
      "î£³": 4610,
      "Mal": 4611,
      "Ġah": 4612,
      "USA": 4613,
      "î¯ĩ": 4614,
      "æĿĴ": 4615,
      "åŃ±": 4616,
      "æĲĹ": 4617,
      "ìŁ¤": 4618,
      "éĤ½": 4619,
      "ä¥Į": 4620,
      "Ġintroduce": 4621,
      "äįĥ": 4622,
      "Ì": 4623,
      "ĠPhone": 4624,
      "Quest": 4625,
      "åŁºç¡Ģ": 4626,
      "Ġautom": 4627,
      "ĠConverts": 4628,
      "Seek": 4629,
      "èº«ä¸º": 4630,
      "related": 4631,
      "Ġnight": 4632,
      "ç¿İ": 4633,
      "ðĵĢį": 4634,
      "æĭ«": 4635,
      "æ¤Ĳ": 4636,
      "çıłå®Ŀ": 4637,
      "OND": 4638,
      "ç©µ": 4639,
      "aji": 4640,
      "åĭī": 4641,
      "ĠQ": 4642,
      "Txt": 4643,
      "dense": 4644,
      "å¤´çļĦ": 4645,
      "ugg": 4646,
      "çĨª": 4647,
      "ëŁ½": 4648,
      "ĠOrder": 4649,
      "îľŁ": 4650,
      "åįģå¹´": 4651,
      "iculo": 4652,
      "LECTION": 4653,
      "TOKEN": 4654,
      "åĻħ": 4655,
      "Ġconsole": 4656,
      "ĠSelection": 4657,
      "Ġìķ": 4658,
      "Gender": 4659,
      "Ġlig": 4660,
      "{:": 4661,
      "Particle": 4662,
      "publish": 4663,
      "âĩĨ": 4664,
      "çĭķ": 4665,
      "ĠCHAR": 4666,
      "Ôµ": 4667,
      "éĤ£æł·": 4668,
      "savefig": 4669,
      "ç´": 4670,
      "/><": 4671,
      "].": 4672,
      "Û²": 4673,
      "éĵ¸": 4674,
      "ì»¥": 4675,
      "schedule": 4676,
      "proto": 4677,
      "Ġjavascript": 4678,
      "Ġdecimal": 4679,
      "îĦģ": 4680,
      "ĠCOLLATE": 4681,
      "Ġ>::": 4682,
      "å¯¹ä¸įèµ·": 4683,
      "é«Ĺ": 4684,
      "goal": 4685,
      "Av": 4686,
      "ĠDo": 4687,
      "abled": 4688,
      "éĲĨ": 4689,
      "Ġabsolute": 4690,
      "èķķ": 4691,
      "à°ª": 4692,
      "ĠDefinition": 4693,
      "çĬ¤": 4694,
      "é¤©": 4695,
      "éļĲèĹı": 4696,
      "URI": 4697,
      "êĨĹ": 4698,
      "æĴ½": 4699,
      "åĨįæ¬¡": 4700,
      "è¿ĩåİ»çļĦ": 4701,
      "ÐŁÑĢ": 4702,
      "ðŁªĵ": 4703,
      "é½Ĥ": 4704,
      "åļĬ": 4705,
      "Manifest": 4706,
      "Ġlib": 4707,
      "bio": 4708,
      "æĺ«": 4709,
      "è¯¸": 4710,
      "ìĹĨ": 4711,
      "é¹±": 4712,
      "ĠPhoto": 4713,
      "ç»Ĩèĩ´": 4714,
      "Ġ_(\"": 4715,
      "èĲĵ": 4716,
      "è·ĳæŃ¥": 4717,
      "íĥ±": 4718,
      "Ġlatitude": 4719,
      "èłŁ": 4720,
      "entropy": 4721,
      "(&": 4722,
      "çĸĴ": 4723,
      "ç®Ģä»ĭ": 4724,
      "Curve": 4725,
      "åıįå¯¹": 4726,
      "ãĺµ": 4727,
      "Ġwhy": 4728,
      "CPU": 4729,
      "Ġaren": 4730,
      "ä¸ĭåįĬ": 4731,
      "ðŁįŀ": 4732,
      "çĺĸ": 4733,
      "å»ĭ": 4734,
      "è¨": 4735,
      "æĲ": 4736,
      "è±ħ": 4737,
      "ðŁĲĽ": 4738,
      "Ġsimply": 4739,
      "Ġpadding": 4740,
      "sorted": 4741,
      "å®ŀ": 4742,
      "TestMethod": 4743,
      "éŁĸ": 4744,
      "ones": 4745,
      "îĥĿ": 4746,
      "alyzer": 4747,
      "Instr": 4748,
      "ðŁĽĴ": 4749,
      "ìĥ¬": 4750,
      "ç²Ŀ": 4751,
      "âĿľ": 4752,
      "Layer": 4753,
      "ZXJ": 4754,
      "ATTR": 4755,
      "ç²µ": 4756,
      "åĮĸå·¥": 4757,
      "INE": 4758,
      "èł¥": 4759,
      "åĲ¾": 4760,
      "è³ĺ": 4761,
      "å¦ł": 4762,
      "ã¨¤": 4763,
      "ïĺŀ": 4764,
      "éĭª": 4765,
      "è¿İæĿ¥": 4766,
      "èľľ": 4767,
      "ĠModal": 4768,
      "è¿Ľåº¦": 4769,
      "Diag": 4770,
      "Ô§": 4771,
      "æ¯ıäºº": 4772,
      "alaxy": 4773,
      "åħ¥": 4774,
      "aber": 4775,
      "ïļ": 4776,
      "å¹³çŃī": 4777,
      "verts": 4778,
      "éĸ¨": 4779,
      "êħ¾": 4780,
      "áĽł": 4781,
      "ìĽ¹": 4782,
      "ïĤ»": 4783,
      "æīħ": 4784,
      "ë°ĭ": 4785,
      "ĠRepository": 4786,
      "ëħĢ": 4787,
      "èķ¶": 4788,
      "æ¤Ĵ": 4789,
      "é¼Ģ": 4790,
      "å¨Ł": 4791,
      "è¡¨çİ°": 4792,
      "äĩ¿": 4793,
      "èĽ½": 4794,
      "ðŁĴ¤": 4795,
      "ë§": 4796,
      "æĻĤ": 4797,
      "scalajs": 4798,
      "tn": 4799,
      "àł²": 4800,
      "éİĵ": 4801,
      "ïĤ¥": 4802,
      "èĥ¤": 4803,
      "å´İ": 4804,
      "ĠToString": 4805,
      "ðŁĽ«": 4806,
      "å§ľ": 4807,
      "EXPECT": 4808,
      "ĠEquals": 4809,
      "è¼Ń": 4810,
      "çĩ¹": 4811,
      "îĶ¾": 4812,
      "åĦ°": 4813,
      "ðŁĳ¢": 4814,
      "å®īåº·": 4815,
      "Ġ/": 4816,
      "Éķ": 4817,
      "Ġactiv": 4818,
      "Ir": 4819,
      "æª¶": 4820,
      "such": 4821,
      "éĪ§": 4822,
      "æĽĤ": 4823,
      "è¶ħçº§": 4824,
      "ĠAJ": 4825,
      "()(": 4826,
      "èľ´": 4827,
      "Coverage": 4828,
      "èį£èİ·": 4829,
      "--}}": 4830,
      "î¨ī": 4831,
      "èĩı": 4832,
      "âĨĦ": 4833,
      "iao": 4834,
      "(\"\");": 4835,
      "åĪ¶åĵģ": 4836,
      "tensor": 4837,
      "ÑĤÐ¾": 4838,
      "ĠDOM": 4839,
      "à¥Į": 4840,
      "çĦ·": 4841,
      "å¸¡": 4842,
      "servlet": 4843,
      "ĠAtomic": 4844,
      "é¥ĥ": 4845,
      "ignore": 4846,
      "ifdef": 4847,
      "Ġlead": 4848,
      "é§´": 4849,
      "çŁĸ": 4850,
      "čĊĉĉĉĉ": 4851,
      "ĠAssertion": 4852,
      "ðŁĴĲ": 4853,
      "à½ı": 4854,
      "æİ¨å¹¿": 4855,
      "æĹ¥è¯Ń": 4856,
      "åħ»çĮª": 4857,
      "â¤ĭ": 4858,
      "æĪİ": 4859,
      "čĊĠĠčĊĠ": 4860,
      "è°ĭ": 4861,
      "áĶ²": 4862,
      "åĻĵ": 4863,
      "TRANS": 4864,
      "éļ¾åº¦": 4865,
      "Ġpip": 4866,
      "Battle": 4867,
      "ĠX": 4868,
      "è½ĩ": 4869,
      "åĳĬçŁ¥": 4870,
      "à¶¨": 4871,
      "æĨİ": 4872,
      "éįĻ": 4873,
      "hit": 4874,
      "ìļ§": 4875,
      "æ»ķ": 4876,
      "åİ³": 4877,
      "èħĻ": 4878,
      "æĮĩå¯¼": 4879,
      "Je": 4880,
      "ç·¾": 4881,
      "ĊĠĠĠĠĠĠĠĠĠĠĠĠĠĠĠĠĠĠĠĠĠĠĠĠĠĠĠĠĠĠĠĠĠĠĠĠĠĠĠĠĠĠĠĠĠ": 4882,
      "Ġ\"%": 4883,
      "éĦĺ": 4884,
      "Equal": 4885,
      "ole": 4886,
      "åŃ©åŃĲ": 4887,
      "Ġbas": 4888,
      "crypto": 4889,
      "ä¿ª": 4890,
      "âıļ": 4891,
      "ä£ĭ": 4892,
      "tod": 4893,
      "ç¿»": 4894,
      "ĠRSA": 4895,
      "á¦ķ": 4896,
      "æł¸": 4897,
      "macro": 4898,
      "éĬ¹": 4899,
      "ë³´": 4900,
      "Shop": 4901,
      "ĠĊĠĠĠĠĠĠĠĠĠĠĠĠĠĠĠĠĠĠĠĠĠĠĠĠĠĠĠ": 4902,
      "å·¥ç¨ĭå¸Ī": 4903,
      "setText": 4904,
      "tros": 4905,
      "ĠTouch": 4906,
      "ðŁĨ": 4907,
      "Ò¢": 4908,
      "âļ³": 4909,
      "oof": 4910,
      "ãĦĭ": 4911,
      "ÌĤ": 4912,
      "éĨļ": 4913,
      "âłº": 4914,
      "ç¯ĳ": 4915,
      "åĳŀ": 4916,
      "Ġcollabor": 4917,
      "ðŁĴ»": 4918,
      "ëŀ©": 4919,
      "ä¸ºæŃ¢": 4920,
      "åĸŀ": 4921,
      "é¹Ħ": 4922,
      "áĪĻ": 4923,
      "suffix": 4924,
      "ĠJenkins": 4925,
      "æ½ĸ": 4926,
      "è®ĭ": 4927,
      "mark": 4928,
      "Ġconcern": 4929,
      "èĽģ": 4930,
      "formatted": 4931,
      "ãģ¾ãģĽãĤĵ": 4932,
      "å¡ļ": 4933,
      "Ġmu": 4934,
      "Äİ": 4935,
      "áĹ·": 4936,
      "QA": 4937,
      "wil": 4938,
      "ðŁĴ½": 4939,
      "æĭ¨": 4940,
      "ÙĹ": 4941,
      "åĪİ": 4942,
      "pul": 4943,
      "à¨Ĳ": 4944,
      "ĠEnd": 4945,
      "íĸ": 4946,
      "æŁ": 4947,
      "ëł¬": 4948,
      "îĹī": 4949,
      "ç¾Ĳ": 4950,
      "Ġstamp": 4951,
      "OG": 4952,
      "Installing": 4953,
      "Ìļ": 4954,
      "extr": 4955,
      "replic": 4956,
      "FirstName": 4957,
      "Ġgen": 4958,
      "ĠManual": 4959,
      "å¹¸ç¦ı": 4960,
      "xB": 4961,
      "Projects": 4962,
      "çĿĩ": 4963,
      "çŀĥ": 4964,
      "ĠÐĶ": 4965,
      "éĬĿ": 4966,
      "'])->": 4967,
      "çĨĺ": 4968,
      "é´İ": 4969,
      "å¤©çĶŁ": 4970,
      "æī¿åĮħ": 4971,
      "alls": 4972,
      "KAN": 4973,
      "[`": 4974,
      "Ġrepo": 4975,
      "æ¹ĸ": 4976,
      "åıĳèĤ²": 4977,
      "EV": 4978,
      "Ń": 4979,
      "promise": 4980,
      "æļĬ": 4981,
      "ïĩ¹": 4982,
      "ðŁĶĢ": 4983,
      "Ġbroken": 4984,
      "à½ĭ": 4985,
      "ðŁįĭ": 4986,
      "éĩįè§Ĩ": 4987,
      "æĻį": 4988,
      "MESSAGE": 4989,
      "BUIL": 4990,
      "Ëĳ": 4991,
      "ÑĥÑİ": 4992,
      "namespaces": 4993,
      "ç¬Ĳ": 4994,
      "ìĶ»": 4995,
      "å¦Ŀ": 4996,
      "timer": 4997,
      "ĠHAND": 4998,
      "ìĹĳ": 4999,
      "è¯Ħä¸º": 5000,
      "å£İ": 5001,
      "ĠTrack": 5002,
      "ðŁ¤¾": 5003,
      "çĿ": 5004,
      "ðŁĢĤ": 5005,
      "éĶı": 5006,
      "çħĩ": 5007,
      "â£¼": 5008,
      "ifferent": 5009,
      "é¡ī": 5010,
      "ïĩ¬": 5011,
      "MIS": 5012,
      "EINVAL": 5013,
      "()/": 5014,
      "é»¨": 5015,
      "Dis": 5016,
      "Ġdom": 5017,
      "îħ®": 5018,
      "IGNED": 5019,
      "lc": 5020,
      "èĲĳ": 5021,
      "çĬį": 5022,
      "Free": 5023,
      "cats": 5024,
      "å®¢è§Ĥ": 5025,
      "ðĲĬ": 5026,
      "æĭ¿çĿĢ": 5027,
      "èĢ´": 5028,
      "erature": 5029,
      "å¤§": 5030,
      "Occurred": 5031,
      "à«Ł": 5032,
      "å¾¼": 5033,
      "è°¦": 5034,
      "ëŀ«": 5035,
      "æľĢç»Ī": 5036,
      "æ§®": 5037,
      "ELAB": 5038,
      "çĶŁäº§çļĦ": 5039,
      "åĲįè¯į": 5040,
      "ç±ĭ": 5041,
      "ç©ºä¸Ń": 5042,
      "å²¥": 5043,
      "Ê¬": 5044,
      "áº°": 5045,
      "lipse": 5046,
      "åļł": 5047,
      "izaÃ§Ã£o": 5048,
      "Óľ": 5049,
      "å¬©": 5050,
      "è¸ı": 5051,
      "è¢ľ": 5052,
      "ã¸ĳ": 5053,
      "é£": 5054,
      "æ·į": 5055,
      "áļ©": 5056,
      "æļĴ": 5057,
      "îŁ¬": 5058,
      "Öŀ": 5059,
      "ïĢ¬": 5060,
      "ê¦Ĺ": 5061,
      "teger": 5062,
      "è±¯": 5063,
      "cite": 5064,
      "å¤§éĺŁ": 5065,
      "ĠuserId": 5066,
      "é¡ĳ": 5067,
      "ĠGROUP": 5068,
      "Ġprec": 5069,
      "è¿ĺåİŁ": 5070,
      "æ»Į": 5071,
      "æ¦ķ": 5072,
      "é¦ĵ": 5073,
      "Ġiterations": 5074,
      "fx": 5075,
      "Ġ\\": 5076,
      "random": 5077,
      "ĠIBM": 5078,
      "ðŁĨļ": 5079,
      "appendChild": 5080,
      "è¨Ħ": 5081,
      "åłĤ": 5082,
      "InProgress": 5083,
      "æ©¢": 5084,
      "å«Ĥ": 5085,
      "Ġdiagnostic": 5086,
      "é¥ħ": 5087,
      "class": 5088,
      "Ii": 5089,
      "áĥŀ": 5090,
      "åĨłçĬ¶": 5091,
      "æ®¸": 5092,
      "xl": 5093,
      "ä¼§": 5094,
      "æīĵçĶµè¯Ŀ": 5095,
      "changelog": 5096,
      "à¤·": 5097,
      "////////////////////////////////////////////////////////////////": 5098,
      "åľ¹": 5099,
      "ĠWhich": 5100,
      "ÆĹ": 5101,
      "æľīåĪ©äºİ": 5102,
      "bounds": 5103,
      "Õ½": 5104,
      "êİ": 5105,
      "éŁĺ": 5106,
      "æĳĩ": 5107,
      "ìļ°": 5108,
      "Ġnormal": 5109,
      "çĮŀ": 5110,
      "æĮĢ": 5111,
      "urnal": 5112,
      "ëĭĻ": 5113,
      "éŁĹ": 5114,
      "Ability": 5115,
      "__)": 5116,
      "*****/": 5117,
      "åĴĪ": 5118,
      "åĵ»": 5119,
      "ĠGeo": 5120,
      "ĠKw": 5121,
      "çŁī": 5122,
      "transfer": 5123,
      "ĠstartTime": 5124,
      "ïĴŀ": 5125,
      "voc": 5126,
      "Ġsn": 5127,
      "LIBR": 5128,
      "éĳĦ": 5129,
      "é±ī": 5130,
      "èĿŀ": 5131,
      "à¨ĸ": 5132,
      "ëŃĺ": 5133,
      "oby": 5134,
      "èŀ¢": 5135,
      "MQ": 5136,
      "ä½İ": 5137,
      "Ð¼Ñĸ": 5138,
      "\\\":{\\\"": 5139,
      "\"<": 5140,
      "Ġbags": 5141,
      "yon": 5142,
      "ç¼Ĥ": 5143,
      "å¾Ĵ": 5144,
      "éĳ¿": 5145,
      "ĠĠĠĠĠĠĠĠĠĠĠĠĠĠĠĠ": 5146,
      "xm": 5147,
      "ä¼ĺç§Ģ": 5148,
      "å¬Ŀ": 5149,
      "éİĹ": 5150,
      "ĠIdent": 5151,
      "æ»ļ": 5152,
      "ĠBi": 5153,
      "á»ı": 5154,
      "èħ®": 5155,
      "çĸ·": 5156,
      "generic": 5157,
      "æĭŀ": 5158,
      "çĩĩ": 5159,
      "é¶°": 5160,
      "åĲįçļĦ": 5161,
      "Ġplan": 5162,
      "Opp": 5163,
      "å¥Ļ": 5164,
      "áĢĻ": 5165,
      "è¿Ļé¦ĸ": 5166,
      "Ġpub": 5167,
      "rst": 5168,
      "Providers": 5169,
      "æ²¡æľīäºº": 5170,
      "èĿİ": 5171,
      "Explicit": 5172,
      "Ġeller": 5173,
      "oral": 5174,
      "ãĥĿãĥ¼ãĥĪ": 5175,
      "half": 5176,
      "ïĢ¸": 5177,
      "çĥŃåº¦": 5178,
      "validator": 5179,
      "ï£º": 5180,
      "éĻ£": 5181,
      "ĠĠĊĠĠ": 5182,
      "Yo": 5183,
      "çĬ§": 5184,
      "subscriptions": 5185,
      "ðŁı¤": 5186,
      "æİĴåĩº": 5187,
      "Ġdire": 5188,
      "Rect": 5189,
      "Sig": 5190,
      "ð¨Ĥĥ": 5191,
      "ê·¸": 5192,
      "ubl": 5193,
      "ĠItems": 5194,
      "è¬¿": 5195,
      "èĲĦ": 5196,
      "SESSION": 5197,
      "à¹ĸ": 5198,
      "éī®": 5199,
      "à¸µ": 5200,
      "è¸³": 5201,
      "Representation": 5202,
      "éĩĮæľī": 5203,
      "à¼Ĩ": 5204,
      "îłĩ": 5205,
      "tcp": 5206,
      "âĬ¿": 5207,
      "ĠWe": 5208,
      "Ġfly": 5209,
      "æĨĭ": 5210,
      "Explorer": 5211,
      "åĲĮæł·": 5212,
      "Effect": 5213,
      "subset": 5214,
      "umi": 5215,
      "åķĩ": 5216,
      "starter": 5217,
      "éŁĭ": 5218,
      "Ġgh": 5219,
      "Leaf": 5220,
      "bot": 5221,
      "ĠSELECT": 5222,
      "ĠAddress": 5223,
      "neg": 5224,
      "ikari": 5225,
      "éª¾": 5226,
      "Comp": 5227,
      "Ġyears": 5228,
      "ĠgetAll": 5229,
      "enqueue": 5230,
      "îĲĳ": 5231,
      "å«Ļ": 5232,
      "ego": 5233,
      "Len": 5234,
      "Ġparty": 5235,
      "rating": 5236,
      "Maximum": 5237,
      "å§Ĳå§Ĳ": 5238,
      "å¼Ģä¸ļ": 5239,
      "Hu": 5240,
      "bootstrapcdn": 5241,
      "åµ½": 5242,
      "ä¹Īæĺ¯": 5243,
      "rdf": 5244,
      "èłĻ": 5245,
      "ali": 5246,
      "éª«": 5247,
      "multi": 5248,
      "êŁ¼": 5249,
      "ç£ī": 5250,
      "ãĤ¹": 5251,
      "é½¯": 5252,
      "ç§ĳåŃ¦": 5253,
      "å¹¦": 5254,
      "ì¿¨": 5255,
      "ordion": 5256,
      "ĠSF": 5257,
      "har": 5258,
      "Äķ": 5259,
      "éłĸ": 5260,
      "èĬĮ": 5261,
      "èļª": 5262,
      "plant": 5263,
      "æ¯ľ": 5264,
      "îľķ": 5265,
      "êĢ¿": 5266,
      "èĸ¥": 5267,
      "æĵĻ": 5268,
      "è°ĪæģĭçĪ±": 5269,
      "åĢĵ": 5270,
      "è±°": 5271,
      "á»Ĳ": 5272,
      "çļĦåŃ¦ä¹ł": 5273,
      "âľĻ": 5274,
      "reflect": 5275,
      "WriteLine": 5276,
      "Ġflexible": 5277,
      "Ġcolor": 5278,
      "rtl": 5279,
      "Signing": 5280,
      "îĤĳ": 5281,
      ">.<": 5282,
      "æĦª": 5283,
      "ç®ĥ": 5284,
      "åļŃ": 5285,
      "áĻł": 5286,
      "multiple": 5287,
      "tÃ³": 5288,
      "çĤĲ": 5289,
      "éı¦": 5290,
      "éł¿": 5291,
      "ä¸ĵé¡¹": 5292,
      "Ġtree": 5293,
      "Ġsecrets": 5294,
      "ĠCriteria": 5295,
      "éĵĻ": 5296,
      "Ġscre": 5297,
      "ð¦Ł": 5298,
      "tex": 5299,
      "Ġstatistics": 5300,
      "center": 5301,
      "OP": 5302,
      "æĵİ": 5303,
      "ĠASF": 5304,
      "N": 5305,
      "äĹ´": 5306,
      "TECT": 5307,
      "åįĵ": 5308,
      "ïĭİ": 5309,
      "éĿĨ": 5310,
      "pcm": 5311,
      "å¿ĥçĹĽ": 5312,
      "å¦¨": 5313,
      "ãĥ¾": 5314,
      "èİŀ": 5315,
      "ç©¢": 5316,
      "uzz": 5317,
      "æ²¤": 5318,
      "Domain": 5319,
      "å¯ĵæĦı": 5320,
      "clusive": 5321,
      "ĠProducts": 5322,
      "èĭ¯": 5323,
      "acao": 5324,
      "à¡¶": 5325,
      "è¯¥å¦Ĥä½ķ": 5326,
      "Ġgone": 5327,
      "since": 5328,
      "âĭĮ": 5329,
      "âİ¬": 5330,
      "æŀľæĤ¨": 5331,
      "ç«Ľ": 5332,
      "Ġident": 5333,
      "àº¢": 5334,
      "ðŁĵ¼": 5335,
      "èĢħä¼ĺåħĪ": 5336,
      "bidden": 5337,
      "å¿Ĥ": 5338,
      "è¸º": 5339,
      "æŁ¿": 5340,
      "é½½": 5341,
      "Ġer": 5342,
      "ëĶ»": 5343,
      "agr": 5344,
      "openlocfilehash": 5345,
      "ä¼ķ": 5346,
      "æĶ²": 5347,
      "éĤ¬": 5348,
      "Õĥ": 5349,
      "ê§Ĥ": 5350,
      "/******/": 5351,
      "çĵ»": 5352,
      "ä»ĺåĩº": 5353,
      "volatile": 5354,
      "èİª": 5355,
      "Ġthread": 5356,
      "çĥ¢": 5357,
      "ìĹĦ": 5358,
      "ç¤Ī": 5359,
      "ä¿¡ä»»": 5360,
      "éĥ½": 5361,
      "è§Ĥçľĭ": 5362,
      "Ãĵ": 5363,
      "ission": 5364,
      "çĢ": 5365,
      "çªģåĩº": 5366,
      "ĠAct": 5367,
      "æĭµ": 5368,
      "dition": 5369,
      "æ»ı": 5370,
      "EM": 5371,
      "Å®": 5372,
      "Ġtwo": 5373,
      "ä»ĵåºĵ": 5374,
      "Ġwrapped": 5375,
      "êµ°": 5376,
      "å¾®çĶŁ": 5377,
      "è¨¼": 5378,
      "éŀ¡": 5379,
      "âª¼": 5380,
      "Ù£": 5381,
      "GU": 5382,
      "Êŀ": 5383,
      "äĦ": 5384,
      "ĠFI": 5385,
      "control": 5386,
      "æ¿Ħ": 5387,
      "çģĶ": 5388,
      "åµ³": 5389,
      "==\"": 5390,
      "](../../../": 5391,
      "Ġestablished": 5392,
      "çĻ¦": 5393,
      "ãģĽãĤĵ": 5394,
      "ĠReturns": 5395,
      "æĺĺ": 5396,
      "ĠArea": 5397,
      "ìĪ¨": 5398,
      "å¯¹æŃ¤": 5399,
      "ä¸ºåķ¥": 5400,
      "çĺĩ": 5401,
      "ĠJVS": 5402,
      "Members": 5403,
      "è¯¾ä»¶": 5404,
      "Ġpathlib": 5405,
      "æĭ¢": 5406,
      "Closure": 5407,
      "èĳ¿": 5408,
      "straints": 5409,
      "ç¨¦": 5410,
      "ç¹ī": 5411,
      "æĭ½": 5412,
      "Ġprox": 5413,
      "\")).": 5414,
      "ĠAPR": 5415,
      "Timer": 5416,
      "æĺ¯è°ģ": 5417,
      "sing": 5418,
      "ë°¸": 5419,
      "alue": 5420,
      "ãĤ¯ãĥ©": 5421,
      "èµļ": 5422,
      "Ġä¸Ģä¸ª": 5423,
      "ision": 5424,
      "dtype": 5425,
      "æģµ": 5426,
      "èĢģå¸Ī": 5427,
      "é®§": 5428,
      "æŃı": 5429,
      "Ġcommunication": 5430,
      "byte": 5431,
      "äĮ·": 5432,
      "ĠPlugin": 5433,
      "ðŁ¥ĥ": 5434,
      "çµĴ": 5435,
      "And": 5436,
      "é²Ŀ": 5437,
      "æĤŃ": 5438,
      "æ¢½": 5439,
      "æĮĴ": 5440,
      "fde": 5441,
      "íĿĳ": 5442,
      "ãĤĭ": 5443,
      "Kit": 5444,
      "ç¡ļ": 5445,
      "ildcard": 5446,
      "è¶Ĥ": 5447,
      "ĠCLASS": 5448,
      "ä¸įè¿ĩ": 5449,
      "âĵ¸": 5450,
      "ä¸Ģåı°": 5451,
      "ĠDefine": 5452,
      "î¬Ħ": 5453,
      "æĻĥ": 5454,
      "æĥ¸": 5455,
      "orizontal": 5456,
      "'>;": 5457,
      "îľ¶": 5458,
      "ðŁĵĪ": 5459,
      "idos": 5460,
      "æ´¦": 5461,
      "ĨĴ": 5462,
      "é²¦": 5463,
      "Ð½Ð¾ÑģÑĤ": 5464,
      "ç½Ń": 5465,
      "åĨĽäºĭ": 5466,
      "ðŁ§¼": 5467,
      "å®Įåħ¨": 5468,
      "éĩ¸": 5469,
      "Ġrefactor": 5470,
      "é³Ń": 5471,
      "îĥĻ": 5472,
      "åħ¬åĬŀ": 5473,
      "é¤Ĳ": 5474,
      "âŀģ": 5475,
      "ì·¨": 5476,
      "åĬłçĽŁ": 5477,
      "áł£": 5478,
      "à¾¸": 5479,
      "áĶ¦": 5480,
      "AccessException": 5481,
      "çĤĳ": 5482,
      "Ġprof": 5483,
      "åĥ½": 5484,
      "êĢ±": 5485,
      "îĺ»": 5486,
      "æĹ¶æľº": 5487,
      "é¶¢": 5488,
      "Ġwebpack": 5489,
      "ç¯İ": 5490,
      "Ġexpansion": 5491,
      "à¾ī": 5492,
      "æ¾·": 5493,
      "æĲ§": 5494,
      "ç¼©": 5495,
      "ocus": 5496,
      "æĮ´": 5497,
      "ïĸ¨": 5498,
      "eds": 5499,
      "Schema": 5500,
      "Bottom": 5501,
      "Modifier": 5502,
      "Sy": 5503,
      "rex": 5504,
      "èĴ¤": 5505,
      "questions": 5506,
      "Ġu": 5507,
      "Trigger": 5508,
      "Ġorient": 5509,
      "â¸ª": 5510,
      "çļĦå£°": 5511,
      "ĠjQuery": 5512,
      "åħµ": 5513,
      "Color": 5514,
      "é»ĩ": 5515,
      "âļ¬": 5516,
      "âĿĿ": 5517,
      "Map": 5518,
      "æħ½": 5519,
      "ĠDatabase": 5520,
      "ðŁķ¸": 5521,
      "RopeObj": 5522,
      "è¯¢éĹ®": 5523,
      "ä¸": 5524,
      "ïĺķ": 5525,
      "äºĭæĥħ": 5526,
      "Ý§": 5527,
      "áĥ·": 5528,
      "inspection": 5529,
      "ðŁĴ¦": 5530,
      "æķĴ": 5531,
      "åľĮ": 5532,
      "ĠParams": 5533,
      "ç½¼": 5534,
      "å¯²": 5535,
      "æ¿³": 5536,
      "éĲľ": 5537,
      "ç©´": 5538,
      "éĺŁåĳĺ": 5539,
      "ategy": 5540,
      "gether": 5541,
      "REM": 5542,
      "å¤±æľĽ": 5543,
      "á»´": 5544,
      "çıŃä¸»ä»»": 5545,
      "EOS": 5546,
      "WH": 5547,
      "å¸ĤæĶ¿åºľ": 5548,
      "/*******************************************************************************": 5549,
      "Ġping": 5550,
      "ä¼¼": 5551,
      "à·ł": 5552,
      "á´ĸ": 5553,
      "æĲºæīĭ": 5554,
      "Ġderivative": 5555,
      "æĴº": 5556,
      "éħ¦": 5557,
      "ĠIssue": 5558,
      "æ¡Ļ": 5559,
      "CO": 5560,
      "å«®": 5561,
      "ãĤ¯ãĥĪ": 5562,
      "CONNECT": 5563,
      "Ġlst": 5564,
      "ç°ĸ": 5565,
      "ks": 5566,
      "ĠEM": 5567,
      "ĠRegister": 5568,
      "çĹļ": 5569,
      "áįį": 5570,
      "çĵ±": 5571,
      "æĪĮ": 5572,
      "éĿ¥": 5573,
      "Ġ(!(": 5574,
      "å¤®": 5575,
      "exc": 5576,
      "àªļ": 5577,
      "æľı": 5578,
      "ðŁİ·": 5579,
      "çł¥": 5580,
      "Bool": 5581,
      "omain": 5582,
      "apid": 5583,
      "ÛĽ": 5584,
      "devtools": 5585,
      "è¼´": 5586,
      "îĥ½": 5587,
      "ĠHOLDERS": 5588,
      "åĵ¼": 5589,
      "áķĻ": 5590,
      "ïĨĬ": 5591,
      "ä¹¿": 5592,
      "ä¹īåĬ¡": 5593,
      "ðĳĦĭ": 5594,
      "çĽ¸å¯¹": 5595,
      "zsh": 5596,
      "èĵģ": 5597,
      "èıĭ": 5598,
      "èĬĽ": 5599,
      "èļĵ": 5600,
      "éĤ£ä¹Ī": 5601,
      "Çļ": 5602,
      "ìĥ¾": 5603,
      "Ì°": 5604,
      "iones": 5605,
      "áı©": 5606,
      "à«į": 5607,
      "<!": 5608,
      "ãģł": 5609,
      "ç¶®": 5610,
      "åĭĿ": 5611,
      "urb": 5612,
      "Ġvary": 5613,
      "èīĥ": 5614,
      "ĠĊĠĠĠĠĠĠĠĠĠĠĠĠĠĠĠ": 5615,
      "callbacks": 5616,
      "acher": 5617,
      "ien": 5618,
      "redhat": 5619,
      "DIG": 5620,
      "ç¢½": 5621,
      "ĠAnnotation": 5622,
      "ðĳĲ": 5623,
      "pq": 5624,
      "èĦĳ": 5625,
      "åĩĥ": 5626,
      "äĹĸ": 5627,
      "é½Ń": 5628,
      "izard": 5629,
      "ðŁ§¿": 5630,
      "äĸĺ": 5631,
      "ä»³": 5632,
      "ìĦ¸": 5633,
      "å½ģ": 5634,
      "åŁļ": 5635,
      "å®ĥä»¬": 5636,
      "Plugin": 5637,
      "../../../": 5638,
      "ievement": 5639,
      "ðŁĺĭ": 5640,
      "ïĺª": 5641,
      "SS": 5642,
      "ðŁĴĤ": 5643,
      ">()": 5644,
      "Ġplacement": 5645,
      "èįĮ": 5646,
      "ĠRAM": 5647,
      "liers": 5648,
      "ðŁĲ¯": 5649,
      "\";'}": 5650,
      "zione": 5651,
      "éªĮæĶ¶": 5652,
      "æ£¸": 5653,
      "best": 5654,
      "ïĺģ": 5655,
      "à¯¹": 5656,
      "è§£": 5657,
      "é£Ĵ": 5658,
      "up": 5659,
      "çļĺ": 5660,
      "ä½Ŀ": 5661,
      "çļĦåĨħ": 5662,
      "()`.": 5663,
      "åĿĽ": 5664,
      "ut": 5665,
      "rk": 5666,
      "North": 5667,
      "Ġè¥¿": 5668,
      "ĠčĊĠĠĠĠ": 5669,
      "ôĢĤĥ": 5670,
      "]": 5671,
      "çĮĴ": 5672,
      "è¿Ĺ": 5673,
      "èħ©": 5674,
      "transaction": 5675,
      "Counters": 5676,
      "[{\"-\",": 5677,
      "ã³Ģ": 5678,
      "áĮ£": 5679,
      "âľ¬": 5680,
      "åĲĮ": 5681,
      "ĊĠĠĠĠĠĠĠĠĠĠĠĠĠĠĠĠĠĠĠĠĠĠĠĠĠĠĠĠĠĠĠĠĠĠĠĠĠĠ": 5682,
      "äºķ": 5683,
      "ĠAnswer": 5684,
      "ðŁĵĹ": 5685,
      "\"}]}],": 5686,
      "åĿĿ": 5687,
      "è¡µ": 5688,
      "èħ¿": 5689,
      "å°Ķæ»¨": 5690,
      "çĲ«": 5691,
      "ĠArrange": 5692,
      "Test": 5693,
      "Ġ{}\",": 5694,
      "iveness": 5695,
      "ager": 5696,
      "Ġstmt": 5697,
      "indent": 5698,
      "ï¸Ģ": 5699,
      "ç¡º": 5700,
      "æĺĩ": 5701,
      "optim": 5702,
      "å¹µ": 5703,
      "êģŀ": 5704,
      "æĽª": 5705,
      "æµĭè¯Ħ": 5706,
      "Ġprovision": 5707,
      "ĠFabric": 5708,
      "é¹¬": 5709,
      "çĩĲ": 5710,
      "àªħ": 5711,
      "äª": 5712,
      "è¾´": 5713,
      "êĮĤ": 5714,
      "çĸĳéĹ®": 5715,
      "Ġbasename": 5716,
      "ĠCLI": 5717,
      "è½»": 5718,
      "OPERATION": 5719,
      "ione": 5720,
      "Ġkter": 5721,
      "ĠLAT": 5722,
      "Ü»": 5723,
      "Zone": 5724,
      "Ġ='": 5725,
      "endpoint": 5726,
      "ìº¡": 5727,
      "ïįĴ": 5728,
      "Ġtp": 5729,
      "Nom": 5730,
      "ãĥ¶": 5731,
      "éłĳ": 5732,
      "Ġà¤": 5733,
      "çĶµè·¯": 5734,
      "Ġupper": 5735,
      "ĠìŀĪ": 5736,
      "åĪ²": 5737,
      "Orders": 5738,
      "ðŁĲĲ": 5739,
      "á¼°": 5740,
      "pd": 5741,
      "ĠRO": 5742,
      "ĠEC": 5743,
      "áŀĶ": 5744,
      "îģĵ": 5745,
      "æŃĭ": 5746,
      "ÕĬ": 5747,
      "Arena": 5748,
      "Ji": 5749,
      "ç°ĭ": 5750,
      "åĲµæŀ¶": 5751,
      "account": 5752,
      "ðŁĢĳ": 5753,
      "æīįçŁ¥éģĵ": 5754,
      "nx": 5755,
      "ãĵĭ": 5756,
      "ç»²": 5757,
      "Sm": 5758,
      "åĮĻ": 5759,
      ">`": 5760,
      "Ġrate": 5761,
      "certificate": 5762,
      "ProgressBar": 5763,
      "æ¿Ŀ": 5764,
      "Calculation": 5765,
      "æ§Ģ": 5766,
      "çĮ«": 5767,
      "\",[$]": 5768,
      "configs": 5769,
      "ä¸įçŁ¥": 5770,
      "rgb": 5771,
      "æį½": 5772,
      "ÃĢ": 5773,
      "#[": 5774,
      "Ġ----------------": 5775,
      "é¶¡": 5776,
      "Ġneural": 5777,
      "jj": 5778,
      "çķĹ": 5779,
      "éĴª": 5780,
      "éĸı": 5781,
      "Ġreflection": 5782,
      "åĶ·": 5783,
      "çļĦå¾Ī": 5784,
      "â¬®": 5785,
      "T": 5786,
      "å»Ŀ": 5787,
      "TE": 5788,
      "íĵ¨": 5789,
      "éĨľ": 5790,
      "é¶Ī": 5791,
      "é°ĸ": 5792,
      "æ¢²": 5793,
      "ew": 5794,
      "æµ»": 5795,
      "à¼Ľ": 5796,
      "Pattern": 5797,
      "ðĳĳħ": 5798,
      "Ġhear": 5799,
      "é¢½": 5800,
      "meas": 5801,
      "æºĨ": 5802,
      "å¦": 5803,
      "Ġdisclaimer": 5804,
      "Ġoverlay": 5805,
      "ðŁĳİ": 5806,
      "âĺ«": 5807,
      "èĸĿ": 5808,
      "îĮĺ": 5809,
      "åĦ£": 5810,
      "åĸĮ": 5811,
      "çĴĸ": 5812,
      "æ¯ıä¸ª": 5813,
      "åĲĦåĽ½": 5814,
      "éĤŁ": 5815,
      "skb": 5816,
      "é®Ľ": 5817,
      "å³ħ": 5818,
      "îĥ¶": 5819,
      "âĭŀ": 5820,
      "migration": 5821,
      "uri": 5822,
      "é¦»": 5823,
      "ðŁħ½": 5824,
      "Ġabout": 5825,
      "jh": 5826,
      "itecture": 5827,
      "rv": 5828,
      "pentaho": 5829,
      "ĠWORK": 5830,
      "íķ´ìĦľ": 5831,
      "ëª½": 5832,
      "êĲĽ": 5833,
      "scri": 5834,
      "ĠåĮĹ": 5835,
      "èĪ©": 5836,
      "Ġmut": 5837,
      "ä¨Ļ": 5838,
      "ĠScal": 5839,
      "Ġblo": 5840,
      "\")){": 5841,
      "ĠIl": 5842,
      "å©Ī": 5843,
      "åĨİ": 5844,
      "é§ľ": 5845,
      "Ox": 5846,
      "Ġ`[": 5847,
      "îĹ¨": 5848,
      "å¥¶ç²ī": 5849,
      "Ref": 5850,
      "èĹļ": 5851,
      "lev": 5852,
      "OpenGL": 5853,
      "à¡Ģ": 5854,
      "åĪĮ": 5855,
      "å¤§å¸Ī": 5856,
      "*);": 5857,
      "æŁĭ": 5858,
      "HANDLER": 5859,
      "Ġinsertion": 5860,
      "ïĵ": 5861,
      "Dns": 5862,
      "è®Ń": 5863,
      "StateMachine": 5864,
      "Observation": 5865,
      "Ôĭ": 5866,
      "Ġ[": 5867,
      "ðŁĶł": 5868,
      "æł¡åĮº": 5869,
      "HASH": 5870,
      "navbar": 5871,
      "Ġtriggers": 5872,
      "ðŁĲº": 5873,
      "ĠOut": 5874,
      "çĭ¥": 5875,
      "Ġ[%": 5876,
      "TRANSFER": 5877,
      "æĸµ": 5878,
      "äĵį": 5879,
      "ðĲĲ¤": 5880,
      "é¶¨": 5881,
      "ãĥĥãĥĪ": 5882,
      "åĲĬ": 5883,
      "ä¹¡æĿĳ": 5884,
      "instagram": 5885,
      "çħ²": 5886,
      "did": 5887,
      "éĽĿ": 5888,
      "ë°ĺ": 5889,
      "é¹´": 5890,
      "éĮĸ": 5891,
      "åĳ¨çŁ¥": 5892,
      "âĨ²": 5893,
      "rollback": 5894,
      "â¸ľ": 5895,
      "ä¸»æĮģäºº": 5896,
      "å¾ĥ": 5897,
      "éĿĺ": 5898,
      "èģķ": 5899,
      "éĴ¼": 5900,
      "Ġvis": 5901,
      "ĠÐ±": 5902,
      "CONTROL": 5903,
      "ç·¬": 5904,
      "Ġtax": 5905,
      "é«ĺæ¸ħ": 5906,
      "ç¬º": 5907,
      "Translate": 5908,
      "ĠParent": 5909,
      "æ¿·": 5910,
      "Ġrevert": 5911,
      "è¨ª": 5912,
      "Ġcreature": 5913,
      "è¦ģåľ¨": 5914,
      "èĲĤ": 5915,
      "ĊĠĠĠĠĠĠĠĠĠĠĠĠĠĠĠĠ": 5916,
      "ë²ķ": 5917,
      "KEYS": 5918,
      "ĠMIME": 5919,
      "èĿ©": 5920,
      "ã¥¬": 5921,
      "à¢ķ": 5922,
      "ëĲľ": 5923,
      "ä¸»è§Ĵ": 5924,
      "ç»": 5925,
      "wy": 5926,
      "tabular": 5927,
      "åĴĮç¤¾ä¼ļ": 5928,
      "æĪĳä»¬åľ¨": 5929,
      "references": 5930,
      "TIMESTAMP": 5931,
      "Col": 5932,
      "NOR": 5933,
      "å§ĥ": 5934,
      "ohn": 5935,
      "é¯½": 5936,
      "ĠÐ¤": 5937,
      "LETED": 5938,
      "è·¸": 5939,
      "æĢĿæĥ³": 5940,
      "è½¬ç§»": 5941,
      "×³": 5942,
      "æĽ": 5943,
      "çłĶç©¶æīĢ": 5944,
      "éļĥ": 5945,
      "çļĦè®¾": 5946,
      "but": 5947,
      "CRIP": 5948,
      "Constantes": 5949,
      "assertNotNull": 5950,
      "æ®¬": 5951,
      "åĻ¯": 5952,
      "Ġunderstanding": 5953,
      "æ¯·": 5954,
      "æĦĮ": 5955,
      "èĮ·": 5956,
      "Ġpropri": 5957,
      "Ġëª¨": 5958,
      "Does": 5959,
      "å¹´çº§": 5960,
      "îŁ¾": 5961,
      "çĮħ": 5962,
      "og": 5963,
      "çĸİ": 5964,
      "å¥¹çļĦ": 5965,
      "åŁ°": 5966,
      "è¡¨å½°": 5967,
      "Ġdiscount": 5968,
      "î§Ķ": 5969,
      "îĬĭ": 5970,
      "æµ§": 5971,
      "Ġbodega": 5972,
      "âĨ¢": 5973,
      "lf": 5974,
      "ë¼": 5975,
      "å°ĥ": 5976,
      "é¡¬": 5977,
      "ç²¾åĬĽ": 5978,
      "â¸®": 5979,
      "ßį": 5980,
      "wh": 5981,
      "ä³Ĺ": 5982,
      "à±ī": 5983,
      "íĴ": 5984,
      "æĬ¥éĶĢ": 5985,
      "ETA": 5986,
      "ÇĤ": 5987,
      "çĻ¡": 5988,
      "ïĤİ": 5989,
      "åī¦": 5990,
      "æ¥ī": 5991,
      "åĬŀåŃ¦": 5992,
      "åº¾": 5993,
      "çĦµ": 5994,
      "utility": 5995,
      "Neighbor": 5996,
      "áļĽ": 5997,
      "åľ¨åīį": 5998,
      "å±İ": 5999,
      "onClick": 6000,
      "Fib": 6001,
      "æ£Ķ": 6002,
      "äººäºº": 6003,
      "èµ®": 6004,
      "eros": 6005,
      "NotaCreditoPunto": 6006,
      "ä´©": 6007,
      ">(\"": 6008,
      "riv": 6009,
      "çĲĶ": 6010,
      "destination": 6011,
      "Ġtheir": 6012,
      "amento": 6013,
      "adas": 6014,
      ")?": 6015,
      "çĺĴ": 6016,
      "çĤİ": 6017,
      "æĵģ": 6018,
      "çķł": 6019,
      "æĢ§ä»·æ¯Ķ": 6020,
      "éµĨ": 6021,
      "èĩ»": 6022,
      "ðŁĻĪ": 6023,
      "Fi": 6024,
      "SAMP": 6025,
      "èģļ": 6026,
      "è½¸": 6027,
      "é¡Ĳ": 6028,
      "æĸĺ": 6029,
      "îł": 6030,
      "åĴ¦": 6031,
      "æ¨Ľ": 6032,
      "å¥": 6033,
      "Æ¥": 6034,
      "fabric": 6035,
      "Ġquota": 6036,
      "ðŁĵŀ": 6037,
      "modes": 6038,
      "æ³ķå®ļ": 6039,
      "åĽŃåĮº": 6040,
      "disp": 6041,
      "å§©": 6042,
      "ðŁ¥į": 6043,
      "ef": 6044,
      "ðłĴ": 6045,
      "åĨħåľ¨": 6046,
      "Ġlisting": 6047,
      "á¯¤": 6048,
      "å§¿": 6049,
      "Paste": 6050,
      "èĬ¨": 6051,
      "îĦ½": 6052,
      "stepfunc": 6053,
      "ĠInst": 6054,
      "å°Ķ": 6055,
      "ðŁĴĴ": 6056,
      "æŀ£": 6057,
      "ç»ĵå±Ģ": 6058,
      "rewrite": 6059,
      "iqu": 6060,
      "Ġlicenses": 6061,
      "PROTOCOL": 6062,
      "Ġvl": 6063,
      "è¹¶": 6064,
      "çĭ¬çī¹çļĦ": 6065,
      "è½´": 6066,
      "wm": 6067,
      "ĠTN": 6068,
      "æĹ¶æľŁ": 6069,
      "çļ®èĤ¤": 6070,
      "èħĺ": 6071,
      "çıĺ": 6072,
      "ðŁĲ¹": 6073,
      "à²": 6074,
      "è°£": 6075,
      "iNdEx": 6076,
      "å§Į": 6077,
      "Ðĳ": 6078,
      "áºĢ": 6079,
      "unda": 6080,
      "umes": 6081,
      "éĩĢ": 6082,
      "é«ª": 6083,
      "Ġquad": 6084,
      "itle": 6085,
      "Ġìľ": 6086,
      "èİ·åıĸ": 6087,
      "å©¤": 6088,
      "Ġtrans": 6089,
      "æĶ": 6090,
      "ĠBegin": 6091,
      "è»ĵ": 6092,
      "éĵĪ": 6093,
      "è©Ĺ": 6094,
      "èŃĤ": 6095,
      "æ°ģ": 6096,
      "éĮŀ": 6097,
      "æ½±": 6098,
      "á»ķ": 6099,
      "ç³Ĳ": 6100,
      "ä»»åĬ¡": 6101,
      "é¦¯": 6102,
      "é±©": 6103,
      "æĲĴ": 6104,
      "áĪĦ": 6105,
      "Apis": 6106,
      "ãĤª": 6107,
      "ĠDJ": 6108,
      "precation": 6109,
      "á¸Ł": 6110,
      "á»²": 6111,
      "ç¨³å®ļ": 6112,
      "çī¹": 6113,
      "ç¿·": 6114,
      "ãĢİ": 6115,
      "è¯º": 6116,
      "Ð»ÑĮ": 6117,
      "åİĤåķĨ": 6118,
      "%.": 6119,
      "á¸®": 6120,
      "éł«": 6121,
      "åĨĽ": 6122,
      "ĊĊĊĊĊĊ": 6123,
      "ario": 6124,
      "gather": 6125,
      "ç±Ĳ": 6126,
      "neo": 6127,
      "iblings": 6128,
      "Credit": 6129,
      "è½¦ç«Ļ": 6130,
      "ADER": 6131,
      "pex": 6132,
      "nodes": 6133,
      "éª³": 6134,
      "toc": 6135,
      "ĠWriting": 6136,
      "âĢŃ": 6137,
      "Co": 6138,
      "ä£Ĵ": 6139,
      "Öİ": 6140,
      "å¿Ħ": 6141,
      "åħ°": 6142,
      "ÒĻ": 6143,
      "èĩĹ": 6144,
      "çģ«çģ¾": 6145,
      "æ©ª": 6146,
      "Í§": 6147,
      "Ġglob": 6148,
      "RTC": 6149,
      "Ġsending": 6150,
      "/+": 6151,
      "çĩ®": 6152,
      "áĽĩ": 6153,
      "åĭ¹": 6154,
      "Barrier": 6155,
      "Ġ../": 6156,
      "Ġcould": 6157,
      "åŁ": 6158,
      "éĢļçŁ¥": 6159,
      "æľ¡": 6160,
      "éĿ¢èĨľ": 6161,
      "opp": 6162,
      "NC": 6163,
      "effective": 6164,
      "îĻµ": 6165,
      "éĶĲ": 6166,
      "lips": 6167,
      "TabIndex": 6168,
      "Ġextensions": 6169,
      "ĠWhether": 6170,
      "Ġgebruik": 6171,
      "desired": 6172,
      "éĭ°": 6173,
      "æĹłçº¿": 6174,
      "ä¸Ģå¿ĥ": 6175,
      "cent": 6176,
      "åľ³å¸Ĥ": 6177,
      "å¤§å¥ĸ": 6178,
      "arduino": 6179,
      "ÓĻ": 6180,
      "é°¢": 6181,
      "iri": 6182,
      "ðŁĴĻ": 6183,
      "çİī": 6184,
      "×·": 6185,
      "à·Ģ": 6186,
      "Ġsensor": 6187,
      "é¥ı": 6188,
      "çŃ¬": 6189,
      "è¾ĥä¸º": 6190,
      "PARENT": 6191,
      "ã¯ĸ": 6192,
      "á»¨": 6193,
      "Ġanimation": 6194,
      "ĠOur": 6195,
      "Êģ": 6196,
      "ä¸Ĺ": 6197,
      "ĠĠčĊč": 6198,
      "acs": 6199,
      "ß¸": 6200,
      "Â¤": 6201,
      "ïı½": 6202,
      "åºĨç¥Ŀ": 6203,
      "éī´": 6204,
      "èŃ¼": 6205,
      "çļĦçİ¯": 6206,
      "å°±ä¼ļ": 6207,
      "Configurations": 6208,
      "çĶµèĦĳ": 6209,
      "ðŁĺŀ": 6210,
      "å®ŀçİ°äºĨ": 6211,
      "ĠFun": 6212,
      "íĦ°": 6213,
      "è®©åŃ©": 6214,
      "Ġwide": 6215,
      "æĳ©": 6216,
      "îłĨ": 6217,
      "éħ©": 6218,
      "è¥¿çľģ": 6219,
      "express": 6220,
      "åĶ¯ä¸Ģ": 6221,
      "åł¡": 6222,
      "å»¯": 6223,
      "èŃ¦åĳĬ": 6224,
      "ĠpostIndex": 6225,
      "Registered": 6226,
      "ìĬĿ": 6227,
      "æĸ°èĥ½æºĲ": 6228,
      "à¦·": 6229,
      "å³Ļ": 6230,
      "Èĺ": 6231,
      "æĪĳä»¬ä¼ļ": 6232,
      "ErrorMessage": 6233,
      "ç¨ĭåº¦": 6234,
      "Criteria": 6235,
      "JWT": 6236,
      "áĪ¨": 6237,
      "åĶŃ": 6238,
      "åĽŀåºĶ": 6239,
      "ïĳ¤": 6240,
      "PYR": 6241,
      "ä¸ľèİŀ": 6242,
      "ðŁĵ«": 6243,
      "Ġib": 6244,
      "Resolution": 6245,
      "Ġkeep": 6246,
      "sectetur": 6247,
      "ç¡§": 6248,
      "è¿µ": 6249,
      "éĩ¼": 6250,
      "çĺĹ": 6251,
      "éĺ³åı°": 6252,
      "éİĿ": 6253,
      "ð¢³": 6254,
      "å¡Ħ": 6255,
      "ĠXi": 6256,
      "éºµ": 6257,
      "password": 6258,
      "Ġfactor": 6259,
      "bottom": 6260,
      "âĿ³": 6261,
      "ßĻ": 6262,
      "Ñº": 6263,
      "ather": 6264,
      "é©»": 6265,
      "ðŁ¤©": 6266,
      "sint": 6267,
      "â»°": 6268,
      "å¼Ĥåľ°": 6269,
      "(){": 6270,
      "astype": 6271,
      "dat": 6272,
      "ä¼»": 6273,
      "æĭķ": 6274,
      "Ġdatetime": 6275,
      "éĪ¥": 6276,
      "ĠÎ±": 6277,
      "Ġ'(": 6278,
      "èºĿ": 6279,
      "æĭ¤": 6280,
      "å¢º": 6281,
      "æīįæĺ¯": 6282,
      "uer": 6283,
      "Marshaler": 6284,
      "â©ĵ": 6285,
      "ç¬´": 6286,
      "äĪĤ": 6287,
      "å²»": 6288,
      "ðŁıĨ": 6289,
      "getObject": 6290,
      "åħ¨åĬĽ": 6291,
      "drop": 6292,
      "åĬĶ": 6293,
      "îĢı": 6294,
      "Ġforecast": 6295,
      "çĲ½": 6296,
      "èĿ¢": 6297,
      "Jud": 6298,
      "î§£": 6299,
      "æĢ¢": 6300,
      "êĦ¾": 6301,
      "è¦ģåĿļæĮģ": 6302,
      "```": 6303,
      "scanner": 6304,
      "ç£°": 6305,
      "label": 6306,
      "nej": 6307,
      "ĠConstruct": 6308,
      "hero": 6309,
      "ICAL": 6310,
      "å£¬": 6311,
      "govuk": 6312,
      "ä¼łè¯´": 6313,
      "é«°": 6314,
      "Ġ>": 6315,
      "ðŁĴ": 6316,
      "çĹĻ": 6317,
      "querySelector": 6318,
      "ĠERROR": 6319,
      "å¼´": 6320,
      "å¾Īåı¯": 6321,
      "çİ·": 6322,
      "Gate": 6323,
      "çļĦä¸ĸ": 6324,
      "nums": 6325,
      "åĳĬäºº": 6326,
      "ÑĥÑĩ": 6327,
      "é³ĩ": 6328,
      "ç°Ł": 6329,
      "vote": 6330,
      "èłł": 6331,
      "æ¶ª": 6332,
      "æıķ": 6333,
      "initialized": 6334,
      "inux": 6335,
      "éıļ": 6336,
      "Ġlc": 6337,
      "Ġfamily": 6338,
      "ïıİ": 6339,
      "èĮ²": 6340,
      "æĲ«": 6341,
      "æ°Ļ": 6342,
      "åĥĴ": 6343,
      "ïĪĵ": 6344,
      "Through": 6345,
      "Ġendif": 6346,
      "å¤ĵ": 6347,
      "getLength": 6348,
      "åĺĲ": 6349,
      "éķ¿å¯¿": 6350,
      "åıĳåĮº": 6351,
      "ĠRot": 6352,
      "è¥¯": 6353,
      "å¿ĥæĥħ": 6354,
      "æĢ¬": 6355,
      "çĬ´": 6356,
      "ç¼ļ": 6357,
      "äº¤æį¢": 6358,
      "vue": 6359,
      "++);": 6360,
      "ã®": 6361,
      "æĺĲ": 6362,
      "ä¸Ĭä¼ł": 6363,
      "å°Ĩäºİ": 6364,
      "SPACE": 6365,
      "ĠAfter": 6366,
      "Ġdei": 6367,
      "åĤİ": 6368,
      "é´ł": 6369,
      "åĳĳ": 6370,
      "tun": 6371,
      "á¬¦": 6372,
      "æ¹Ķ": 6373,
      "launch": 6374,
      "çĤ«": 6375,
      "Ġ};": 6376,
      "è¤Ĭ": 6377,
      "é©ħ": 6378,
      ">())": 6379,
      "æĮĺ": 6380,
      "æıĲåĩºäºĨ": 6381,
      "æ¢·": 6382,
      "çģı": 6383,
      "áį±": 6384,
      "æ¢Ī": 6385,
      "itÃ©": 6386,
      "à¿ķ": 6387,
      "ĠSerial": 6388,
      "ç¡Ł": 6389,
      "PLUS": 6390,
      "âĬĤ": 6391,
      "lius": 6392,
      "ãĢĵ": 6393,
      "æĹ¸": 6394,
      "Ġstudents": 6395,
      "äºĨä¸ĢäºĽ": 6396,
      "POSIT": 6397,
      "gam": 6398,
      "çªŃ": 6399,
      "inks": 6400,
      "sequences": 6401,
      "borrow": 6402,
      "é³Ģ": 6403,
      "à°Ĺ": 6404,
      "íĩ": 6405,
      "çľŁæŃ£çļĦ": 6406,
      "iffer": 6407,
      "ç¾ľ": 6408,
      "à¬Ĺ": 6409,
      "ä¸§": 6410,
      "ĠName": 6411,
      "uz": 6412,
      "ç¨¢": 6413,
      "çĬ±": 6414,
      "etch": 6415,
      "æµģè¡Į": 6416,
      "GI": 6417,
      "ç©ª": 6418,
      ",,": 6419,
      "wor": 6420,
      "â®Ŀ": 6421,
      "ä¾ĥ": 6422,
      "åĢ¥": 6423,
      "æ´»çļĦ": 6424,
      "Ġaug": 6425,
      "AddRange": 6426,
      "userId": 6427,
      "à¯°": 6428,
      "âĹ´": 6429,
      "çľĴ": 6430,
      "preds": 6431,
      "èĺ©": 6432,
      "æ²Ĳ": 6433,
      "ã«": 6434,
      "ç´Ĵ": 6435,
      "áŁ§": 6436,
      "ASK": 6437,
      "ç¹Ļ": 6438,
      "æĢ§": 6439,
      "è§ĳ": 6440,
      "éĩ£": 6441,
      "áĦĤ": 6442,
      "cience": 6443,
      "à«Ĩ": 6444,
      "êĩģ": 6445,
      "ä¸įåĲĪæł¼": 6446,
      "ede": 6447,
      "à©±": 6448,
      "xic": 6449,
      "å¯¬": 6450,
      "éį³": 6451,
      "Sun": 6452,
      "Ġì£¼": 6453,
      "ç½ĺ": 6454,
      "ãģĦãģ¦": 6455,
      "âºģ": 6456,
      "nesday": 6457,
      "Ġcool": 6458,
      "åĭ²": 6459,
      "Ġ{}\".": 6460,
      "î¡ı": 6461,
      "åĢĹ": 6462,
      "ó°Ĩ": 6463,
      "ĊĠĠĠĠĠĠĠĠĠĠĠĠĠĠĠĠĠĠĠĠĠĠĠĠ": 6464,
      "éĭİ": 6465,
      "äº²åĪĩ": 6466,
      "éĥĭ": 6467,
      "ĠëĮĢ": 6468,
      "ïĵģ": 6469,
      "printStackTrace": 6470,
      "ðŁį»": 6471,
      "éĤ®ä»¶": 6472,
      "èĦĪ": 6473,
      "åıĪ": 6474,
      "å": 6475,
      "ç¨¤": 6476,
      "joint": 6477,
      "2": 6478,
      "Ã²": 6479,
      "èŀ¬": 6480,
      "Ġ$@": 6481,
      "åŀĺ": 6482,
      "ĠSer": 6483,
      "ãĥĢ": 6484,
      "çĲŀ": 6485,
      "Recovery": 6486,
      "ĠHR": 6487,
      "æĬ¤å£«": 6488,
      "ObjectId": 6489,
      "ç¶³": 6490,
      "ä»·": 6491,
      "ĠREADME": 6492,
      "amil": 6493,
      "è¼": 6494,
      "model": 6495,
      "ĠHo": 6496,
      "åĵĲ": 6497,
      "âĤ©": 6498,
      "áĬĨ": 6499,
      "çº»": 6500,
      "ç´Ĭ": 6501,
      "ĠSystems": 6502,
      "tipo": 6503,
      "rink": 6504,
      "INSTALL": 6505,
      "rendering": 6506,
      "î¤Ĺ": 6507,
      "ç«¹": 6508,
      "pearance": 6509,
      "éĺĢ": 6510,
      "à¦³": 6511,
      "AREA": 6512,
      "Arch": 6513,
      "awk": 6514,
      "NULL": 6515,
      "ĠPG": 6516,
      "äĴ": 6517,
      "Ú±": 6518,
      "ðŁħ¥": 6519,
      "box": 6520,
      "îĦĩ": 6521,
      "Ġch": 6522,
      "qe": 6523,
      "Ġlocal": 6524,
      "çŃĵ": 6525,
      "'m": 6526,
      "ë½": 6527,
      "ë½Ĳ": 6528,
      "Max": 6529,
      "`](#": 6530,
      "å§ļ": 6531,
      "=\"'.$": 6532,
      "Ġì½Ķëĵľ": 6533,
      "æĶ¯ä»ĺ": 6534,
      "éķĴ": 6535,
      "åĪĻæĺ¯": 6536,
      "ĠSPE": 6537,
      "à¤«": 6538,
      "ç¡Ħ": 6539,
      "îļļ": 6540,
      "ĠRem": 6541,
      "âļī": 6542,
      "à¾": 6543,
      "æ³Ń": 6544,
      "Rank": 6545,
      "à³ĭ": 6546,
      "åģ¾": 6547,
      "Tuple": 6548,
      "Spawn": 6549,
      "ServiceClient": 6550,
      "×Ł": 6551,
      "emy": 6552,
      "ðŁ¥¡": 6553,
      "Expect": 6554,
      "èĢĮåĩº": 6555,
      "æ³¼": 6556,
      "branch": 6557,
      "Ġgenome": 6558,
      "ĊĊĉĠ": 6559,
      "signed": 6560,
      "ÎĽ": 6561,
      "ðŁĶĽ": 6562,
      "å½Ŀ": 6563,
      "å¤©æ´¥": 6564,
      "æĭ¹": 6565,
      "oco": 6566,
      "ĠPC": 6567,
      "æķĦ": 6568,
      "link": 6569,
      "çľĭ": 6570,
      "ÌĨ": 6571,
      "Reports": 6572,
      "rott": 6573,
      "å«¦": 6574,
      "ĠrotateX": 6575,
      "è´¸æĺĵ": 6576,
      "ĠAU": 6577,
      "Ġinteger": 6578,
      "Refund": 6579,
      "è½ĳ": 6580,
      "é·İ": 6581,
      "çĪĹ": 6582,
      "Autowired": 6583,
      "ãĤŃ": 6584,
      "gressive": 6585,
      "åĭ¼": 6586,
      "æĩī": 6587,
      "ïľ¹": 6588,
      "ç¦Ħ": 6589,
      "è¾ĥå¼ºçļĦ": 6590,
      "Ġlow": 6591,
      "ah": 6592,
      "éĹ¬": 6593,
      "ç¨İ": 6594,
      "âŀļ": 6595,
      "wY": 6596,
      "á¦®": 6597,
      "uzzle": 6598,
      "áĭĵ": 6599,
      "hib": 6600,
      "getter": 6601,
      "aci": 6602,
      "á»Ľi": 6603,
      "çĺĥ": 6604,
      "îĭĢ": 6605,
      "çŃīåľ°": 6606,
      "Ø½": 6607,
      "åĭŃ": 6608,
      "å¾³": 6609,
      "DF": 6610,
      "îĬ¶": 6611,
      "èĪŀ": 6612,
      "æĲŃéħį": 6613,
      "çºį": 6614,
      "Ġsmart": 6615,
      "Ġdestroy": 6616,
      "é«³": 6617,
      "logits": 6618,
      "å§½": 6619,
      "æ»Ĺ": 6620,
      "çŁ¥è¯ĨçĤ¹": 6621,
      "Ġencountered": 6622,
      "æĹĳ": 6623,
      "èĻ¬": 6624,
      "ä³ķ": 6625,
      "ç¡": 6626,
      "ousel": 6627,
      "æŀº": 6628,
      "éĢ·": 6629,
      "]\",": 6630,
      "moke": 6631,
      "åıĴ": 6632,
      "ì¨Į": 6633,
      "hook": 6634,
      "çķ²": 6635,
      "à©¿": 6636,
      "å½±è§Ĩ": 6637,
      "ïĩª": 6638,
      "èĦī": 6639,
      "ã±İ": 6640,
      "ggler": 6641,
      "æ´ĸ": 6642,
      "ÊŁ": 6643,
      "äķ": 6644,
      "à©·": 6645,
      "Vw": 6646,
      "ïĺĩ": 6647,
      "åĴ°": 6648,
      "ä¸ĢçļĦ": 6649,
      "åĵ±": 6650,
      "ĠFORM": 6651,
      "']=": 6652,
      "Interceptor": 6653,
      "ayment": 6654,
      "ä»ĸäººçļĦ": 6655,
      "Anonymous": 6656,
      "trans": 6657,
      "E": 6658,
      "çļĦä¸»": 6659,
      "POR": 6660,
      "phere": 6661,
      "èĲĪ": 6662,
      "ç³ħ": 6663,
      "åĽŀæĬ¥": 6664,
      "Parcel": 6665,
      "ãĴ°": 6666,
      "äº©": 6667,
      "å¾ħéģĩ": 6668,
      "æ¸±": 6669,
      "äĲ±": 6670,
      "Pending": 6671,
      "è»¯": 6672,
      "ç£¶": 6673,
      "å¿įä¸į": 6674,
      "ä¸įä»£è¡¨": 6675,
      "Login": 6676,
      "à¯³": 6677,
      "Ġ\"_\"": 6678,
      "PE": 6679,
      "prediction": 6680,
      "thumb": 6681,
      "Adjust": 6682,
      "Ġform": 6683,
      "å½Į": 6684,
      "è¹ī": 6685,
      "lu": 6686,
      "è®ł": 6687,
      "çį¨": 6688,
      "Ġsear": 6689,
      "ç®ı": 6690,
      "Ġoverflow": 6691,
      "Ġreplication": 6692,
      "æ¾´": 6693,
      "åĪĩæĪĲ": 6694,
      "Ġ~=": 6695,
      "æ¯Ľæ³½ä¸ľ": 6696,
      "åĮ»çĸĹ": 6697,
      "åĽĭ": 6698,
      "GUILayout": 6699,
      "urren": 6700,
      "findBy": 6701,
      "ITLE": 6702,
      "äºĭåıĳ": 6703,
      "å¯»æ±Ĥ": 6704,
      "æĺİ": 6705,
      "ĠIt": 6706,
      "ĠLogin": 6707,
      "éĥĦ": 6708,
      "áĸ«": 6709,
      "åįĬå¹´": 6710,
      "ç¾İæľ¯": 6711,
      "NNNNNNNN": 6712,
      "Lt": 6713,
      "ĠTensor": 6714,
      "ĠCUDA": 6715,
      "è¤°": 6716,
      "âĪĢ": 6717,
      "ç»ļ": 6718,
      "èľ¶": 6719,
      "Descriptions": 6720,
      "sourceCode": 6721,
      "bab": 6722,
      "MJ": 6723,
      "Tur": 6724,
      "Vulkan": 6725,
      "é¬ĺ": 6726,
      "èŁĩ": 6727,
      "ĠçĽ®åīį": 6728,
      "é¢¦": 6729,
      "âĬĿ": 6730,
      "ĠTag": 6731,
      "åºļ": 6732,
      "îİĥ": 6733,
      "åĩº": 6734,
      "çŁŃ": 6735,
      "çĽĺ": 6736,
      "ä¼ļè®®": 6737,
      "àłŀ": 6738,
      "à¯Ł": 6739,
      "ĊĠĠĊĠĠ": 6740,
      "ëĦµ": 6741,
      "îģ¯": 6742,
      "è´¨": 6743,
      "å·İ": 6744,
      "çĴĤ": 6745,
      "ÏŃ": 6746,
      "viation": 6747,
      "é¯ĥ": 6748,
      "åģĲ": 6749,
      "è°¯": 6750,
      "Query": 6751,
      "ī": 6752,
      "ĠWill": 6753,
      "ANG": 6754,
      "FRS": 6755,
      "ÑĨÐ¸Ð¸": 6756,
      "ĠCall": 6757,
      "predict": 6758,
      "âķ¤": 6759,
      "æīĨ": 6760,
      "à½Ŀ": 6761,
      "æı§": 6762,
      "é¦Ń": 6763,
      "æĪĺå½¹": 6764,
      "system": 6765,
      "åº§è°Ī": 6766,
      "ëŀ¬": 6767,
      "éł»": 6768,
      "ã´ª": 6769,
      "æį¥": 6770,
      "ðŁ¥ĺ": 6771,
      "çĶĺ": 6772,
      "äº§éĩı": 6773,
      "observer": 6774,
      "encies": 6775,
      "ôı°ģ": 6776,
      "æĦ¿ä½ł": 6777,
      "orf": 6778,
      "lm": 6779,
      "Ġdual": 6780,
      "å¹¶ä¸įæĺ¯": 6781,
      "è¯¼": 6782,
      "áĴĢ": 6783,
      "åĩºç§Ł": 6784,
      "outil": 6785,
      "Ġartifact": 6786,
      "Ġeax": 6787,
      "èıŃ": 6788,
      ";|&": 6789,
      "åĮºçļĦ": 6790,
      "Ü¢": 6791,
      "å®ŀéªĮ": 6792,
      "ðĵģĩ": 6793,
      "ä½¿": 6794,
      "ArrayList": 6795,
      "GLBINDING": 6796,
      "åĽ¤": 6797,
      "åĻ¢": 6798,
      "è¿ĩåİ»äºĨ": 6799,
      "å¸Į": 6800,
      "èıħ": 6801,
      "Ġma": 6802,
      "å±ĩ": 6803,
      "â²ı": 6804,
      "bine": 6805,
      "åİģ": 6806,
      "ïİĽ": 6807,
      "redito": 6808,
      "ÐµÑģÑĤ": 6809,
      "ðŁį£": 6810,
      "è¿ĽæŃ¥": 6811,
      "èįµ": 6812,
      ">${": 6813,
      "ç£¥": 6814,
      "è»Ļ": 6815,
      "Important": 6816,
      "åĤ¾": 6817,
      "æĺ´": 6818,
      "é¼Ń": 6819,
      "æ´ģ": 6820,
      "é«®": 6821,
      "Ġarea": 6822,
      "Ġ'./": 6823,
      ");</": 6824,
      "æµł": 6825,
      "ãĤ": 6826,
      "aff": 6827,
      "',`": 6828,
      "ĠRo": 6829,
      "éĹ»ç½ĳ": 6830,
      "ãł°": 6831,
      "æ¢¹": 6832,
      "æ¨º": 6833,
      "Zh": 6834,
      "êĳ¼": 6835,
      "OVE": 6836,
      "Ġwhenever": 6837,
      "teams": 6838,
      "å£Ľ": 6839,
      "ä¸įè¶ħ": 6840,
      "Ë¨": 6841,
      "îĮĭ": 6842,
      "æłģ": 6843,
      "åļ·": 6844,
      "á¸ĵ": 6845,
      "æ¯Ī": 6846,
      "åŁĭ": 6847,
      "áŁħ": 6848,
      "Qo": 6849,
      "é¹ľ": 6850,
      "èĩªåªĴ": 6851,
      "èĢ¡": 6852,
      "ä£Ķ": 6853,
      "åħ¨æĦŁ": 6854,
      "Ġoptimized": 6855,
      "\"}]}": 6856,
      "æľĹè¯»": 6857,
      "èĢĭ": 6858,
      "accum": 6859,
      "Attempt": 6860,
      "Developer": 6861,
      "èĿ±": 6862,
      "èĹĿ": 6863,
      "é¢Ł": 6864,
      "åĪĨå¼Ģ": 6865,
      "ç¦µ": 6866,
      "è¿Ľåİ»": 6867,
      "éį¡": 6868,
      "çī¶": 6869,
      "çłķ": 6870,
      "estimator": 6871,
      "èģĴ": 6872,
      "Ġlists": 6873,
      "îĤ±": 6874,
      "Ã¶n": 6875,
      "coverage": 6876,
      "×ķ": 6877,
      "î¡ĩ": 6878,
      "æĮĵ": 6879,
      "éĥ·": 6880,
      "\">&#": 6881,
      "ä¸ĩåĲ¨": 6882,
      ">\")": 6883,
      "Initial": 6884,
      "ïģĢ": 6885,
      "é®İ": 6886,
      "onz": 6887,
      "ïĥª": 6888,
      "Ġattachments": 6889,
      "obile": 6890,
      "dan": 6891,
      "ãĸ¬": 6892,
      "Ġcharts": 6893,
      "Ġ(@": 6894,
      "ê²Ģ": 6895,
      "æ»ĥ": 6896,
      "Ġpd": 6897,
      "æĵħ": 6898,
      "Ġgroups": 6899,
      "ATURE": 6900,
      "iprot": 6901,
      "MEMORY": 6902,
      "anies": 6903,
      "è¢Ħ": 6904,
      "JR": 6905,
      "ÞĨ": 6906,
      "ç¶´": 6907,
      "å«´": 6908,
      "ïħ¦": 6909,
      "à¬ģ": 6910,
      "'-": 6911,
      "ĊĠĠĠĠĠĠĠĠĠĠĠĠĠĠĠĠĠĠĠĠĊĠĠĠĠĠĠĠĠĠĠĠĠĠĠĠĠĠĠĠ": 6912,
      "ìĦ¼": 6913,
      "uted": 6914,
      "æľĳ": 6915,
      "åģ»": 6916,
      "ðĵĪĴ": 6917,
      "åħ®": 6918,
      "music": 6919,
      "`?": 6920,
      "áĪĥ": 6921,
      "è½»è½»": 6922,
      "Ġparam": 6923,
      "ä¼łç»Ł": 6924,
      "è²®": 6925,
      "é¸¯": 6926,
      "hir": 6927,
      "ìŀ¤": 6928,
      "ĠCont": 6929,
      "èµ¡": 6930,
      "kategori": 6931,
      "ä¸īåįģ": 6932,
      "çĶ¬": 6933,
      "connect": 6934,
      "åĵĴ": 6935,
      "å¥±": 6936,
      "gest": 6937,
      "æĻºåķĨ": 6938,
      "åħ¨æĸ¹ä½į": 6939,
      "ä»Ļ": 6940,
      "éĥĬ": 6941,
      "Ġcommands": 6942,
      "Excel": 6943,
      "errors": 6944,
      "Ġ{_": 6945,
      "PRODUCT": 6946,
      "ïĵİ": 6947,
      "Ġtried": 6948,
      "Ġasync": 6949,
      "æĸĩç«ł": 6950,
      "ëĶ±": 6951,
      "Ġk": 6952,
      "äį¦": 6953,
      "åİŁæĸĩ": 6954,
      "Ġdere": 6955,
      "Ñ¶": 6956,
      "é¢«": 6957,
      "ĠUsing": 6958,
      "ibration": 6959,
      "ã§¢": 6960,
      "éľħ": 6961,
      "unordered": 6962,
      "æıĮ": 6963,
      "mo": 6964,
      "CUR": 6965,
      "eff": 6966,
      "âļĿ": 6967,
      "éĥħ": 6968,
      "Ġqs": 6969,
      "ãĳ°": 6970,
      "Ġduration": 6971,
      "achment": 6972,
      "äĥº": 6973,
      "ë²³": 6974,
      "æ¡ª": 6975,
      "îģĤ": 6976,
      "Suppress": 6977,
      "/{}": 6978,
      "Ġ[.": 6979,
      "ignored": 6980,
      "áĪĪ": 6981,
      "èĩķ": 6982,
      "Ġrequested": 6983,
      "ïģ¦": 6984,
      "å²Ł": 6985,
      "êĲĺ": 6986,
      "Ġeffects": 6987,
      "eep": 6988,
      "èİ²": 6989,
      "éĮ³": 6990,
      "è¨¥": 6991,
      "AIN": 6992,
      "process": 6993,
      "Sleep": 6994,
      "ä½Ĥ": 6995,
      "çļĦåģ¥": 6996,
      "å¹ħåº¦": 6997,
      "åº´": 6998,
      "åľ°éĿ¢": 6999,
      "áİ§": 7000,
      "quivo": 7001,
      "æŃ¦": 7002,
      "ÂĲ": 7003,
      "âĿĬ": 7004,
      "éµ¢": 7005,
      "Æĺ": 7006,
      "îĺĸ": 7007,
      "æĶ»çķ¥": 7008,
      "ðŁĹ»": 7009,
      "Ġaccurate": 7010,
      "æŀľæĺ¯": 7011,
      "ä±»": 7012,
      "ç®©": 7013,
      "æº±": 7014,
      "æ··åĩĿ": 7015,
      "Ġcurrency": 7016,
      "triangle": 7017,
      "å¼ºåĮĸ": 7018,
      "é´ĳ": 7019,
      "å¸Ĩ": 7020,
      "åİ·": 7021,
      "ðŁĶŃ": 7022,
      "è¶Ĳ": 7023,
      "qli": 7024,
      "çĭŁ": 7025,
      "ĠìĿ": 7026,
      "ç²¼": 7027,
      "share": 7028,
      "æļ®": 7029,
      "å¼ºçĥĪ": 7030,
      "Ġnamespaces": 7031,
      "åĪĽä¸ļ": 7032,
      "ĶĦ": 7033,
      "æºĤ": 7034,
      "Ýľ": 7035,
      "Ġaffected": 7036,
      "çī±": 7037,
      "ïģ¨": 7038,
      "æĥĤ": 7039,
      "ç¯Ĳ": 7040,
      "éĽ¨": 7041,
      "êĴĬ": 7042,
      "oni": 7043,
      "ç¹Ĭ": 7044,
      "å°±éľĢè¦ģ": 7045,
      "ĠTeam": 7046,
      "************************************************": 7047,
      "éĸ²": 7048,
      "feedback": 7049,
      "Men": 7050,
      "è»Ĭ": 7051,
      "ddd": 7052,
      "å»ĥ": 7053,
      "å¤½": 7054,
      "Ġ/.": 7055,
      "îªĬ": 7056,
      "å¢ļ": 7057,
      "ĠBASE": 7058,
      "æ¸©æŁĶ": 7059,
      "âĽ¹": 7060,
      "urity": 7061,
      "xcd": 7062,
      "ĠControl": 7063,
      "ipynb": 7064,
      "èĤ£": 7065,
      "Þĩ": 7066,
      "Ġauthorized": 7067,
      "àµĽ": 7068,
      "ç¼Ĵ": 7069,
      "MSG": 7070,
      "deviceId": 7071,
      "Ġinformation": 7072,
      "ĠFOR": 7073,
      "ë°«": 7074,
      "á´ļ": 7075,
      "Latitude": 7076,
      "ormap": 7077,
      "áº§": 7078,
      "($_": 7079,
      "Ur": 7080,
      "éį²": 7081,
      "êĶ·": 7082,
      "å£ĸ": 7083,
      "à¤²": 7084,
      "áīĤ": 7085,
      "åĢĸ": 7086,
      "å·±": 7087,
      "à²ī": 7088,
      "èĩĭ": 7089,
      "åĻĻ": 7090,
      "braz": 7091,
      "åİµ": 7092,
      "Constraint": 7093,
      "Ġepisode": 7094,
      "æ¶¨": 7095,
      "ç³»åĪĹ": 7096,
      "ïģĦ": 7097,
      "æĢ£": 7098,
      "Ù¢": 7099,
      "ðŁĸĮ": 7100,
      "coder": 7101,
      "ĠĠĠĠĠĠĠĠĠĠĠĠĠĠĠĠĠĠĠĠĠĠĠĠ": 7102,
      "ĠTarget": 7103,
      "obot": 7104,
      "GPIO": 7105,
      "ĠWhite": 7106,
      "èģ¤": 7107,
      "ïĲį": 7108,
      "å¯ĵ": 7109,
      "êĬ¨": 7110,
      "ë¡Ń": 7111,
      "çŁĶ": 7112,
      "Ġdescribe": 7113,
      "æĥĬåĸľ": 7114,
      "é»ĺè®¤": 7115,
      "çĻĢ": 7116,
      "Ġrepresentation": 7117,
      "é¬ķ": 7118,
      "ðŁĲ¶": 7119,
      "pem": 7120,
      "HTTP": 7121,
      "See": 7122,
      "EXISTS": 7123,
      "List": 7124,
      "çĮ³": 7125,
      "çĦ¶åĲİ": 7126,
      "ĊĠĠĠĠĠĠĠĠĠĠĠĠĊĠĠĠĠĠĠĠĠĠĠĠ": 7127,
      "é°µ": 7128,
      "Ġcre": 7129,
      "Dimension": 7130,
      "èĺĻ": 7131,
      "ĠÐ¿Ð¾Ð´": 7132,
      "éĹĽ": 7133,
      "ï¸": 7134,
      "ue": 7135,
      "é½´": 7136,
      "éĿ¢å¯¹": 7137,
      "Ġinfinite": 7138,
      "äļ§": 7139,
      "ïĢĦ": 7140,
      "çªģåıĳ": 7141,
      "Root": 7142,
      "ifer": 7143,
      "ðŁ¤Ł": 7144,
      "èĳĦ": 7145,
      "à°Ĭ": 7146,
      "GENER": 7147,
      "pyplot": 7148,
      "â»Ķ": 7149,
      "æ£Ĵ": 7150,
      "SQLException": 7151,
      "âĪ¿": 7152,
      "xcb": 7153,
      "à·Ĭ": 7154,
      "çºģ": 7155,
      "å¸¿": 7156,
      "ðŁĹĥ": 7157,
      "lete": 7158,
      "Sheet": 7159,
      "formula": 7160,
      "Õ³": 7161,
      "row": 7162,
      "è²¯": 7163,
      "ìĦŀ": 7164,
      "éıı": 7165,
      "Ġ(.": 7166,
      "ðŁįľ": 7167,
      "îĢĳ": 7168,
      "éĬ±": 7169,
      "éĢĶä¸Ń": 7170,
      "='#": 7171,
      "Tube": 7172,
      "ĊĠĠĠĠĠĠĠĠĠĠĠĠĠĠĠĠĠĠĠĠĠĠĠĠĠĠĠĠĠĠĠĠĠ": 7173,
      "unter": 7174,
      "ategies": 7175,
      "ð¨": 7176,
      "Not": 7177,
      "å³ŀ": 7178,
      "Ġclean": 7179,
      "NodeType": 7180,
      "æĽĳ": 7181,
      "åįĹ": 7182,
      "è®¡": 7183,
      "è¶£åĳ³": 7184,
      "ä¸¤ç§į": 7185,
      "çļĦè´£ä»»": 7186,
      "Union": 7187,
      "çĵļ": 7188,
      "xxx": 7189,
      "ê¯£": 7190,
      "çĬĹ": 7191,
      "Targets": 7192,
      "ĠHome": 7193,
      "áĲ": 7194,
      "èµĵ": 7195,
      "åº£": 7196,
      "æļı": 7197,
      "lie": 7198,
      "ĠWarning": 7199,
      "]|": 7200,
      "ä´Ŀ": 7201,
      "æĭįæĳĦ": 7202,
      "ivari": 7203,
      "Ê§": 7204,
      "Ġneed": 7205,
      "çİĺ": 7206,
      "DOCUMENT": 7207,
      "ä¼Ĭ": 7208,
      "çĶĥ": 7209,
      "Fragment": 7210,
      "SPACING": 7211,
      "è±ĳ": 7212,
      "EXTERNALSYM": 7213,
      "àª¤": 7214,
      "structured": 7215,
      "éĿĴæµ·": 7216,
      "åĶĥ": 7217,
      "Allocate": 7218,
      "âĥł": 7219,
      "áĬĸ": 7220,
      "Time": 7221,
      "æļĤæĹ¶": 7222,
      "êĿļ": 7223,
      "æĨī": 7224,
      "ê«Ģ": 7225,
      "ĠPub": 7226,
      "ð¬ľ¯": 7227,
      "à¬Ħ": 7228,
      "åį±": 7229,
      "æīĵå·¥": 7230,
      "çīĪ": 7231,
      "FD": 7232,
      "å»ºç«ĭ": 7233,
      "Addon": 7234,
      "âĿĭ": 7235,
      "ì´Į": 7236,
      "å½¹": 7237,
      "è¥¸": 7238,
      "è·½": 7239,
      "æ³ī": 7240,
      "oan": 7241,
      "åľ¨ä½ł": 7242,
      "ORDER": 7243,
      "è¸ĸ": 7244,
      "éĪ»": 7245,
      "î®ł": 7246,
      "åĪ«äºº": 7247,
      "à°µ": 7248,
      "lobal": 7249,
      "UEST": 7250,
      "stat": 7251,
      "ôĢ³ĩ": 7252,
      "çĺģ": 7253,
      "áī¼": 7254,
      "Ġ<:": 7255,
      "è¿ĺéľĢ": 7256,
      "DOCS": 7257,
      "plain": 7258,
      "å¯ĺ": 7259,
      "çº¼": 7260,
      "çĹµ": 7261,
      "æ£«": 7262,
      "æĦ®": 7263,
      "Spy": 7264,
      "Ġcorrespond": 7265,
      "èľ½": 7266,
      "éĿĦ": 7267,
      "èĥ¯": 7268,
      "ã¼": 7269,
      "èĽĿ": 7270,
      "äĳĶ": 7271,
      "å²ĩ": 7272,
      "Ġdescriptions": 7273,
      "ç¾·": 7274,
      "Ġrest": 7275,
      "çĸĢ": 7276,
      "éĢ": 7277,
      "Ġ\".$": 7278,
      "ullet": 7279,
      "BB": 7280,
      "é¹Ĭ": 7281,
      "ZEND": 7282,
      "SetName": 7283,
      "Ġ×ĳ": 7284,
      "Reser": 7285,
      "cor": 7286,
      "versation": 7287,
      "êħ¿": 7288,
      "Ġow": 7289,
      "çŁĤ": 7290,
      "Ġmsg": 7291,
      "riteria": 7292,
      "ç¾ĩ": 7293,
      "ä¾¨": 7294,
      "Ġexperi": 7295,
      "ë³Ħ": 7296,
      "åªĨ": 7297,
      "ĊĠĠĠĊĠĠ": 7298,
      "æµ¯": 7299,
      "å¦Į": 7300,
      "ĠâĤ¬": 7301,
      "ĊĉĉĠĠĠĠĠ": 7302,
      "ä½łçļĦ": 7303,
      "third": 7304,
      "Ġfocused": 7305,
      "SC": 7306,
      "å¸Ľ": 7307,
      "ãļµ": 7308,
      "cnt": 7309,
      "âĻĹ": 7310,
      "áłĮ": 7311,
      "æĥħå½¢": 7312,
      "åħ³": 7313,
      "Ġcoord": 7314,
      "sWith": 7315,
      "å¤ĩå¥½": 7316,
      "DAC": 7317,
      "Coded": 7318,
      "ãŀ¹": 7319,
      "å¨±ä¹ĲåľĪ": 7320,
      "ÚĲ": 7321,
      "official": 7322,
      "âµ¦": 7323,
      "éī¾": 7324,
      "Ġproper": 7325,
      "à¤Ĳ": 7326,
      "ê¯©": 7327,
      "isateur": 7328,
      "osx": 7329,
      "ĠConstant": 7330,
      "åįķèº«": 7331,
      "îĨ¬": 7332,
      "çĿı": 7333,
      "Ġpositive": 7334,
      "cing": 7335,
      "è¶ı": 7336,
      "ĠConnection": 7337,
      "åłı": 7338,
      "CORRECT": 7339,
      "à¤ķ": 7340,
      "å»Ļ": 7341,
      "çŁĩ": 7342,
      "è¥Ħ": 7343,
      "Ġ'</": 7344,
      "èĶı": 7345,
      "multip": 7346,
      "çĢĮ": 7347,
      "ïĤĥ": 7348,
      "nÃŃ": 7349,
      "ej": 7350,
      "ä»£è¡¨": 7351,
      "é¨ĺ": 7352,
      "gamma": 7353,
      "oma": 7354,
      "CACHE": 7355,
      "ó¾ĵŃ": 7356,
      "ĠImp": 7357,
      "comm": 7358,
      "æ£ļ": 7359,
      "ain": 7360,
      "æ³º": 7361,
      "è®©æĪĳ": 7362,
      "å¿ŀ": 7363,
      "AMD": 7364,
      "éĹ¸": 7365,
      "Ġcompil": 7366,
      "áĢ´": 7367,
      "Ġparents": 7368,
      "çīĵ": 7369,
      "Ûķ": 7370,
      "å´Ń": 7371,
      "å¾Ģä¸ĭ": 7372,
      "åĤĢ": 7373,
      "é¡¾": 7374,
      "å±º": 7375,
      "æĿ¿åĿĹ": 7376,
      "voices": 7377,
      "Brush": 7378,
      "ç£Ĥ": 7379,
      "Vertex": 7380,
      "æ¨¡ç³Ĭ": 7381,
      "éĽħæĢĿ": 7382,
      "mission": 7383,
      "é£µ": 7384,
      "ïİĤ": 7385,
      "çŀ±": 7386,
      "å¾¿": 7387,
      "vez": 7388,
      "îŀ§": 7389,
      "å°Ĳ": 7390,
      "á¸ĳ": 7391,
      "yped": 7392,
      "íĻ§": 7393,
      "ango": 7394,
      "Ġ\\\"\"": 7395,
      "âĬĬ": 7396,
      "å¤ĸçļĦ": 7397,
      "ä¸Īå¤«": 7398,
      "OPEN": 7399,
      "ÑĤ": 7400,
      "Search": 7401,
      "Ãº": 7402,
      "å¢³": 7403,
      "ïı¢": 7404,
      "ïĢ£": 7405,
      "ÐµÑĩ": 7406,
      "î¦µ": 7407,
      "ðŁķµ": 7408,
      "æķ°çļĦ": 7409,
      "ä¼°è®¡": 7410,
      "datepicker": 7411,
      "ãģĭ": 7412,
      "Ġcsv": 7413,
      "Ell": 7414,
      "Þ±": 7415,
      "ðŁª¦": 7416,
      "ðĵĢ¤": 7417,
      "æ¨¡æĭŁ": 7418,
      "æ³ĵ": 7419,
      "â¨Ģ": 7420,
      "Ġcd": 7421,
      "Ġ~/": 7422,
      "îĺĭ": 7423,
      "ICATION": 7424,
      "Ġsorry": 7425,
      "ĠPolygon": 7426,
      "éĪļ": 7427,
      "blockList": 7428,
      "ç®±": 7429,
      "ĠHow": 7430,
      "***": 7431,
      "slash": 7432,
      "á´§": 7433,
      "åļĸ": 7434,
      "åĺļ": 7435,
      "ĠOper": 7436,
      "éĩ²": 7437,
      "SCO": 7438,
      "RENDER": 7439,
      "bazel": 7440,
      "Ġrestrictions": 7441,
      "Ġíķľ": 7442,
      "åĬ±": 7443,
      "æ°ĳèŃ¦": 7444,
      "cluding": 7445,
      "imit": 7446,
      "Privacy": 7447,
      "âĨķ": 7448,
      "å®¥": 7449,
      "åĥŃ": 7450,
      "inputs": 7451,
      "Ly": 7452,
      "Ġ&$": 7453,
      "Ġë³Ģ": 7454,
      "Ġig": 7455,
      "âĪ": 7456,
      "âĨ©": 7457,
      "áİ©": 7458,
      "x": 7459,
      "æ£½": 7460,
      "Wave": 7461,
      "à²¿": 7462,
      "čĊĠĠĠĠĠĠĠĠĠĠĠĠĠĠĠĠĠĠĠĠĠĠĠĠĠĠĠĠĠĠĠĠĠĠĠĠĠĠĠ": 7463,
      "çĵĶ": 7464,
      "ì§ĵ": 7465,
      "ĠAX": 7466,
      "Mul": 7467,
      "èįİ": 7468,
      "éĢļè¿ĩ": 7469,
      "Ġfname": 7470,
      "Ġhon": 7471,
      "è¯ļä¿¡": 7472,
      "Overlay": 7473,
      "Interfaces": 7474,
      "æ¸Ĥ": 7475,
      "Ġlifetime": 7476,
      "éį¸": 7477,
      "ĠMonad": 7478,
      "íĮľ": 7479,
      "ãļ¼": 7480,
      "éķ¼": 7481,
      "Ð´Ñĥ": 7482,
      "thedocs": 7483,
      "×©": 7484,
      "ĠMetrics": 7485,
      "Del": 7486,
      "ComponentModel": 7487,
      "Ġdisp": 7488,
      "Lite": 7489,
      "Ġdependent": 7490,
      "æ«·": 7491,
      "é§¡": 7492,
      "âŁ®": 7493,
      "æ¾¸": 7494,
      ",-": 7495,
      "End": 7496,
      "è³ĵ": 7497,
      "éĽ°": 7498,
      "Ġtakes": 7499,
      "è¿Ĳä½ľ": 7500,
      "á¸ĭ": 7501,
      "ðŁĽİ": 7502,
      "ðŁļ¢": 7503,
      "åļĢ": 7504,
      "åĶĶ": 7505,
      "ä¸Ńæľī": 7506,
      "ðŁŁ¨": 7507,
      "shares": 7508,
      "æµģç¨ĭ": 7509,
      "ogg": 7510,
      "apt": 7511,
      "*;": 7512,
      "Ġfigure": 7513,
      "å¡": 7514,
      "âĿį": 7515,
      "Ġcoefficient": 7516,
      "ä°Ł": 7517,
      "éįĤ": 7518,
      "çĨī": 7519,
      "íĬ¼": 7520,
      "ä¿®è®¢": 7521,
      "interfaces": 7522,
      "remove": 7523,
      "Ġsupports": 7524,
      "ĠProtocol": 7525,
      "FATAL": 7526,
      "ĠWIT": 7527,
      "Ġ/>": 7528,
      "NullPointerException": 7529,
      "æµľ": 7530,
      "Ġchart": 7531,
      "som": 7532,
      "å«¸": 7533,
      "jac": 7534,
      "áķ": 7535,
      "åĢ¸": 7536,
      "èĲ¥éĶĢ": 7537,
      "âĻı": 7538,
      "repo": 7539,
      "Ġdoing": 7540,
      "Ġcosts": 7541,
      "ðŁıĮ": 7542,
      "æĮį": 7543,
      "çĺĵ": 7544,
      "ðŁĮ¥": 7545,
      "ä¸Ģç¾¤": 7546,
      "ĠÑĦÐ°Ð¹": 7547,
      "Ġ},": 7548,
      "çľĭåĪ°": 7549,
      "ã§¯": 7550,
      "è¦İ": 7551,
      "Ġtypes": 7552,
      "çĹ»": 7553,
      "à³ª": 7554,
      "èĿ¬": 7555,
      "àŃĢ": 7556,
      "åĪĽä½ľ": 7557,
      "asÄ±": 7558,
      "âĭĹ": 7559,
      "éĩİçĶŁ": 7560,
      "çļĦè®¾è®¡": 7561,
      "ã§¾": 7562,
      "è°ĵçļĦ": 7563,
      "steps": 7564,
      "êı¿": 7565,
      "èĺĶ": 7566,
      "julia": 7567,
      "ïĦº": 7568,
      "Ġprincip": 7569,
      "Ë®": 7570,
      "èĮ©": 7571,
      "è·¯è¾¹": 7572,
      "tos": 7573,
      "è³ģ": 7574,
      "pickle": 7575,
      "èĵ¥": 7576,
      "ãĹĤ": 7577,
      "âĶĲ": 7578,
      "âľ£": 7579,
      "æ¯ķä¸ļäºİ": 7580,
      "èµ©": 7581,
      "ritical": 7582,
      "Þ®": 7583,
      "ĠMobile": 7584,
      "é£¹": 7585,
      "Cent": 7586,
      "Ġiss": 7587,
      "ïĢ¼": 7588,
      "scribed": 7589,
      "ische": 7590,
      "æ¢": 7591,
      "~/": 7592,
      "å¨Ķ": 7593,
      "ĠHeaders": 7594,
      "Fire": 7595,
      "Ġto": 7596,
      "ä¸»è¦ģ": 7597,
      "åĬ®": 7598,
      "áįĢ": 7599,
      "Ġneighbor": 7600,
      "ĠÐ¸Ð½": 7601,
      "ess": 7602,
      "å¤©èĿİ": 7603,
      "æ¤ī": 7604,
      "éĺ²æ±Ľ": 7605,
      "æ¤§": 7606,
      "buff": 7607,
      "==========": 7608,
      "Ġgot": 7609,
      "ĠdÃ©": 7610,
      "Ġ\"*": 7611,
      "èĮ¨": 7612,
      "ÄŁer": 7613,
      "ì½Ķ": 7614,
      "EventHandler": 7615,
      "Ġmedium": 7616,
      "çļĦå®ī": 7617,
      "èĶ¶": 7618,
      "ç·¸": 7619,
      "contains": 7620,
      "Ġbooks": 7621,
      "ç£»": 7622,
      "ç½ħ": 7623,
      "èµ·åĪ°": 7624,
      "åŁ¥": 7625,
      "readLine": 7626,
      "éĻ¸": 7627,
      "Ġ\"[": 7628,
      "ãĥħ": 7629,
      "äºĨåĩł": 7630,
      "é¦ľ": 7631,
      "ĠStudio": 7632,
      "âŃ£": 7633,
      "Ġcod": 7634,
      "ĠShell": 7635,
      "Ó²": 7636,
      "èµĦæºĲ": 7637,
      "à¦£": 7638,
      "çħ¾": 7639,
      "å³°": 7640,
      "ĠDefault": 7641,
      "Ġir": 7642,
      "Ġremains": 7643,
      "hal": 7644,
      "open": 7645,
      "îģ´": 7646,
      "Ġsublic": 7647,
      "ïĢı": 7648,
      "irv": 7649,
      "Ġenforce": 7650,
      "æŃĸ": 7651,
      "áªĭ": 7652,
      "éĮ´": 7653,
      "ila": 7654,
      "ëĬĺ": 7655,
      "ĠExtra": 7656,
      "á½ĥ": 7657,
      "Ġinvocation": 7658,
      "ĠAV": 7659,
      "Ġcri": 7660,
      "Ġkann": 7661,
      "ãĥĬ": 7662,
      "å¨·": 7663,
      "å¹ĭ": 7664,
      "isease": 7665,
      "æģ«": 7666,
      "éĿĸ": 7667,
      "à²¼": 7668,
      "áĳ°": 7669,
      "ĠjustifyContent": 7670,
      "Props": 7671,
      "åĥł": 7672,
      "åģ²": 7673,
      "åĨµ": 7674,
      "Ġregexp": 7675,
      "æĹ·": 7676,
      "èµ¥": 7677,
      "å¹Į": 7678,
      "îªĹ": 7679,
      "î²Ĳ": 7680,
      "_[": 7681,
      "Ýµ": 7682,
      "åĩĮ": 7683,
      "Turn": 7684,
      "éĲ¼": 7685,
      "ðŁıħ": 7686,
      "çĳ¾": 7687,
      "èĪľ": 7688,
      "itch": 7689,
      "ļ": 7690,
      "ãģĳ": 7691,
      "æĵĽ": 7692,
      "èĿ³": 7693,
      "parallel": 7694,
      "æķ´æ²»": 7695,
      "relu": 7696,
      "åľ¨æĪĳ": 7697,
      "Ġnz": 7698,
      "é¤Ĭ": 7699,
      "ìĸ¹": 7700,
      "ç»±": 7701,
      "Ġ\".\"": 7702,
      "aspx": 7703,
      "ãĤı": 7704,
      "å»«": 7705,
      "yout": 7706,
      "è·Łéļı": 7707,
      "êŀį": 7708,
      "Ġanymore": 7709,
      "Playing": 7710,
      "æĦ¯": 7711,
      "éī³": 7712,
      "ãĥ¯": 7713,
      "ìĶ¹": 7714,
      "ïĺĪ": 7715,
      "Init": 7716,
      "æĭįçħ§": 7717,
      "rict": 7718,
      "åĿĲ": 7719,
      "îĻħ": 7720,
      "BY": 7721,
      "äºĨä»ĸ": 7722,
      "åĦ¦": 7723,
      "ä¸įæķ¢": 7724,
      "åīŃ": 7725,
      "é»": 7726,
      "âĹ·": 7727,
      "Aware": 7728,
      "çĺĶ": 7729,
      "Allow": 7730,
      "îĪĴ": 7731,
      "æĦŁ": 7732,
      "åĦĻ": 7733,
      "åĶĽ": 7734,
      "++)": 7735,
      "Ġsigning": 7736,
      "éļ¾ä»¥": 7737,
      "StatusCode": 7738,
      "ä¸ĵè¾ĳ": 7739,
      "æĻ®éĢļ": 7740,
      "EXTERNAL": 7741,
      "usb": 7742,
      "dirs": 7743,
      "åĮĸçļĦ": 7744,
      "jure": 7745,
      "als": 7746,
      "ç±Ń": 7747,
      "â«": 7748,
      "ïģ¬": 7749,
      "èŀº": 7750,
      "èĢĺ": 7751,
      "æģ¸": 7752,
      "ĠDiv": 7753,
      "ĠPRIMARY": 7754,
      "larÄ±": 7755,
      "èĢģå©Ĩ": 7756,
      "èºĤ": 7757,
      "á¼¼": 7758,
      "çģŃ": 7759,
      "áİ«": 7760,
      "æŃ¤å¤ĸ": 7761,
      "éļ®": 7762,
      "å»ŀ": 7763,
      "åĴ³åĹ½": 7764,
      "è¤ĳ": 7765,
      "éªĢ": 7766,
      "è¸·": 7767,
      "éĩ±": 7768,
      "æ°ĳäºĭ": 7769,
      "Ġmaximum": 7770,
      "Ġplayed": 7771,
      "æ°": 7772,
      "ĠHE": 7773,
      "Ġundef": 7774,
      "analyzer": 7775,
      "mov": 7776,
      "á³": 7777,
      "Ġpersist": 7778,
      "endar": 7779,
      "------------": 7780,
      "èĦĬ": 7781,
      "Úĵ": 7782,
      "éķ¡": 7783,
      "èĿĹ": 7784,
      "YP": 7785,
      "åī¬": 7786,
      "áŀĵ": 7787,
      "áĲ¯": 7788,
      "éĽ¶åĶ®": 7789,
      "Ġç¬¬äºĮ": 7790,
      "ĠEMPTY": 7791,
      "ĠGood": 7792,
      "Bean": 7793,
      "Ġundo": 7794,
      "à½§": 7795,
      "äĨ": 7796,
      "è±ī": 7797,
      "çºłçº·": 7798,
      "å¹Ĳ": 7799,
      "ç¸¨": 7800,
      "ç³¦": 7801,
      "âĨľ": 7802,
      "äŁķ": 7803,
      "čĊĠĠĠĠĠĠĠĠĠĠĠĠĠĠĠĠĠĠĠĠ": 7804,
      "Wind": 7805,
      "âŀ±": 7806,
      "æ®¶": 7807,
      "âı©": 7808,
      "åīĥ": 7809,
      "ä¸ľè·¯": 7810,
      "ĠĠĊ": 7811,
      "åĸģ": 7812,
      "æ¶¿": 7813,
      "éĤķ": 7814,
      "tomcat": 7815,
      "Ġbits": 7816,
      "liberty": 7817,
      "èıı": 7818,
      "ĠInfo": 7819,
      "atars": 7820,
      "Ġdiscard": 7821,
      "â¤¬": 7822,
      "å¢«": 7823,
      "èĩ¼": 7824,
      "ó±Ĳ": 7825,
      "Öı": 7826,
      "ð¤ĭ": 7827,
      "UML": 7828,
      "åĶħ": 7829,
      "Ġvalidator": 7830,
      "Ġseries": 7831,
      "äĲ¢": 7832,
      "ä¸įåĸľ": 7833,
      "Sub": 7834,
      "àº·": 7835,
      "Ġapproval": 7836,
      "********": 7837,
      "å£¢": 7838,
      "ç»»": 7839,
      "ãµ": 7840,
      "æ»Ģ": 7841,
      "âĻĬ": 7842,
      "Grad": 7843,
      "near": 7844,
      "ïĻĬ": 7845,
      "åļĤ": 7846,
      "ect": 7847,
      "Flag": 7848,
      "ê·Ħ": 7849,
      "äºĨä¸ª": 7850,
      "êĬ·": 7851,
      "åı¿": 7852,
      "åľ°çĲĥ": 7853,
      "çĩĺ": 7854,
      "è´Ŀ": 7855,
      "Ġbullet": 7856,
      "veis": 7857,
      "è½¬è½½": 7858,
      "çı³": 7859,
      "è´¯å½»": 7860,
      "oys": 7861,
      "ìĹĺ": 7862,
      "ĠÂ£": 7863,
      "èĹ¿": 7864,
      "coordinates": 7865,
      "â£¿": 7866,
      "Sent": 7867,
      "ä¼ĬæľĹ": 7868,
      "her": 7869,
      "æļį": 7870,
      "ìĩ": 7871,
      "cko": 7872,
      "&&": 7873,
      "ä¸ºæĪĳä»¬": 7874,
      ".(": 7875,
      "éĦ®": 7876,
      "ĠFrank": 7877,
      "ïİ¶": 7878,
      "á¿ł": 7879,
      "ãģģ": 7880,
      "åħĸ": 7881,
      "é£¬": 7882,
      "(\"^": 7883,
      "èªĹ": 7884,
      "íĻĪ": 7885,
      "rig": 7886,
      "áħ²": 7887,
      "Ġresol": 7888,
      "æĹİ": 7889,
      "æ¸ģ": 7890,
      "part": 7891,
      "Ġadmin": 7892,
      "æĵª": 7893,
      "æİµ": 7894,
      "âĭĬ": 7895,
      "æĮ¿": 7896,
      "chant": 7897,
      "Ġbreaking": 7898,
      "å®¹": 7899,
      "æĤ«": 7900,
      "èĭħ": 7901,
      "å®īå¸Ĥ": 7902,
      "zier": 7903,
      "æĬŀ": 7904,
      "áĻ®": 7905,
      "çłĶè®¨": 7906,
      "ÞĢ": 7907,
      "Ġwave": 7908,
      "AS": 7909,
      "äºĮæīĭ": 7910,
      "Ġag": 7911,
      "]].": 7912,
      "Æ½": 7913,
      "ÖĢ": 7914,
      "true": 7915,
      "ôı°Ĥ": 7916,
      "ka": 7917,
      "íĥĳ": 7918,
      "txt": 7919,
      "ĠÃ¶": 7920,
      "æīĢæľīçļĦ": 7921,
      "âĺº": 7922,
      "è©¡": 7923,
      "ĊĠĠĉ": 7924,
      "æ¹Ŀ": 7925,
      "éŃħ": 7926,
      "èª¿": 7927,
      "ÆŁ": 7928,
      "Ġtrouble": 7929,
      "ä»¶": 7930,
      "çłŁ": 7931,
      "éħįæĸ¹": 7932,
      "ç¥Ŀ": 7933,
      "ÐµÑĢÐ¶": 7934,
      "éĻ§": 7935,
      "æĤ¶": 7936,
      "ç¨¶": 7937,
      "ajor": 7938,
      "Stopped": 7939,
      "ç§ĳå®¤": 7940,
      "äĤĵ": 7941,
      "çĩģ": 7942,
      "å¤ĸéĿ¢": 7943,
      "âĩº": 7944,
      "make": 7945,
      "Ġtexture": 7946,
      "æ¨ĸ": 7947,
      "èĬ¼": 7948,
      "ä¿Ŀåģ¥": 7949,
      "FromString": 7950,
      "rup": 7951,
      "ç»©æķĪ": 7952,
      "ĠKr": 7953,
      "äĲ": 7954,
      "ïĺĶ": 7955,
      "ĠNZ": 7956,
      "å¼ĢéĢļ": 7957,
      "æįĤ": 7958,
      "Ġ'\\'": 7959,
      "èĳ¬": 7960,
      "ĠÐµ": 7961,
      "è¯¡": 7962,
      "ATIVE": 7963,
      "HttpClient": 7964,
      "pay": 7965,
      "ĠExplorer": 7966,
      "ç¨": 7967,
      "Lower": 7968,
      "Ġas": 7969,
      "å¿ħé¡»": 7970,
      "ëĮķ": 7971,
      "ĠLo": 7972,
      "ari": 7973,
      "çĤĮ": 7974,
      "ëĸ": 7975,
      "çŁ¥éģĵ": 7976,
      "ives": 7977,
      "à½¿": 7978,
      "ĠJr": 7979,
      "Ġ\"'": 7980,
      "ä»Ģ": 7981,
      "é¥®é£Ł": 7982,
      "çŁģ": 7983,
      "Ġtamb": 7984,
      "éĿº": 7985,
      "èĲ½åĲİ": 7986,
      "Sep": 7987,
      "kp": 7988,
      "æĵ¨": 7989,
      "graphql": 7990,
      "æĻĶ": 7991,
      "èĮł": 7992,
      "ished": 7993,
      "ç¦º": 7994,
      "é¬ª": 7995,
      "ç½Ķ": 7996,
      "!'": 7997,
      "Wlan": 7998,
      "Func": 7999,
      "ðŁħķ": 8000,
      "Ïĥ": 8001,
      "rsa": 8002,
      "ä¼¥": 8003,
      "ç¡Ĵ": 8004,
      "çĶ¸": 8005,
      "æģ¶æĢ§": 8006,
      "JC": 8007,
      "ä¸ĩäºĭ": 8008,
      "gis": 8009,
      "birth": 8010,
      "ç¶Ĳ": 8011,
      "ç¦ľ": 8012,
      "à±ĵ": 8013,
      "ipv": 8014,
      "ĠForward": 8015,
      "Å¢": 8016,
      "è¶ĩ": 8017,
      "å®Ĩ": 8018,
      "Ýħ": 8019,
      "á¼¸": 8020,
      "é½¤": 8021,
      "è¾¥": 8022,
      "SAME": 8023,
      "éĽĥ": 8024,
      "î¤Ŀ": 8025,
      "éŃĻ": 8026,
      "áī": 8027,
      "åıĭä»¬": 8028,
      "ç¦ıçļĦ": 8029,
      "Ġtier": 8030,
      "çĳĺ": 8031,
      "êĤª": 8032,
      "Ġbenchmark": 8033,
      "infrastructure": 8034,
      "xampp": 8035,
      "çºª": 8036,
      "ç°´": 8037,
      "ora": 8038,
      "èİ´": 8039,
      "èħ£": 8040,
      "à¦Ł": 8041,
      "fraction": 8042,
      "CRE": 8043,
      "Ġconnect": 8044,
      "Ġintent": 8045,
      "ĠScheduler": 8046,
      "Ġnoise": 8047,
      "ë¯": 8048,
      "âĻŃ": 8049,
      "ĠCAP": 8050,
      "èĬĿéº»": 8051,
      "Ġquest": 8052,
      "æĭīå¼Ģ": 8053,
      "îŁ": 8054,
      "é¦ĸåıĳ": 8055,
      "ĠTENT": 8056,
      "æĤ´": 8057,
      "ĠPaint": 8058,
      "èĲ«": 8059,
      "ä¸Ĭè¯¾": 8060,
      "prec": 8061,
      "ç¤Ĭ": 8062,
      "oin": 8063,
      "Ġoriginally": 8064,
      "Mer": 8065,
      "Macro": 8066,
      "ì«Ħ": 8067,
      "Ġtxt": 8068,
      "äº½": 8069,
      "ä¸įçĿĢ": 8070,
      "Ġperson": 8071,
      "(\"/": 8072,
      "æĺ¯åı¯": 8073,
      "xffffffff": 8074,
      "è¾Ĭ": 8075,
      "çĲ»": 8076,
      "åį°ä»¶": 8077,
      "ä¸¸": 8078,
      "ØĹ": 8079,
      "è¾§": 8080,
      "Node": 8081,
      "å¬¾": 8082,
      "è¶¡": 8083,
      "êİ¬": 8084,
      "liance": 8085,
      "å¶ĸ": 8086,
      "stash": 8087,
      "Refs": 8088,
      "ĠReflection": 8089,
      "ĠChanged": 8090,
      "æķ¬è¯·": 8091,
      "çĬ¹è±«": 8092,
      "âĶĤ": 8093,
      "îŁ»": 8094,
      "unit": 8095,
      "èļĻ": 8096,
      "áĹķ": 8097,
      "à¥ģ": 8098,
      "ĠResolve": 8099,
      "æ³¡": 8100,
      "æĭ¼": 8101,
      "çľŁå®ŀæĢ§": 8102,
      "å½±åĵį": 8103,
      "ìŀĶ": 8104,
      "Truncated": 8105,
      "Ã¼n": 8106,
      "éħ¼": 8107,
      "åħ±": 8108,
      "à®¾": 8109,
      "Ġsal": 8110,
      "flags": 8111,
      "ãĤ§": 8112,
      "quip": 8113,
      "imm": 8114,
      "èĺ¶": 8115,
      "iom": 8116,
      "ANE": 8117,
      "LARGE": 8118,
      "Ġline": 8119,
      "(%": 8120,
      "enden": 8121,
      "ïĤĽ": 8122,
      "ïĢ°": 8123,
      "ÕĤ": 8124,
      "aes": 8125,
      "â¦µ": 8126,
      "èĮĥåĽ´åĨħ": 8127,
      "íķĺê¸°": 8128,
      "å¡¢": 8129,
      "Ġforma": 8130,
      "Ġay": 8131,
      "Ġeinem": 8132,
      "îĳĲ": 8133,
      "ĠOs": 8134,
      "å»¸": 8135,
      "scores": 8136,
      "ĠInstitute": 8137,
      "`]": 8138,
      "openid": 8139,
      "Ë»": 8140,
      "à´Ń": 8141,
      "èİī": 8142,
      "CEO": 8143,
      "æĹħæ¸¸": 8144,
      "Ġtimeout": 8145,
      "ïĦ°": 8146,
      "Sat": 8147,
      "zt": 8148,
      "çļĦè·¯": 8149,
      "iten": 8150,
      "îĲ¾": 8151,
      "orage": 8152,
      "â«¸": 8153,
      "è¬Ħ": 8154,
      "ä¸Ģä¼ļ": 8155,
      "exclude": 8156,
      "ç½Ģ": 8157,
      "ç¼ºçĤ¹": 8158,
      "achin": 8159,
      "ÎĲ": 8160,
      "ĠÌģs": 8161,
      "DOUBLE": 8162,
      "à·µ": 8163,
      "bor": 8164,
      "êĪĪ": 8165,
      "tsd": 8166,
      "DetalleFacturaProveedor": 8167,
      "derr": 8168,
      "ç½Ĭ": 8169,
      "ìľĻ": 8170,
      "ãģ¦": 8171,
      "ðŁ¥£": 8172,
      "ðŁª´": 8173,
      "ß": 8174,
      "ground": 8175,
      "èĪ³": 8176,
      "éĽĪ": 8177,
      "ïįº": 8178,
      "touch": 8179,
      "ç¡¬ä»¶": 8180,
      "Altern": 8181,
      "åĮı": 8182,
      "Safe": 8183,
      "NESS": 8184,
      "UN": 8185,
      "blog": 8186,
      "istence": 8187,
      "HEADER": 8188,
      "ðŁĲĩ": 8189,
      "ĠWidget": 8190,
      "éŁ¢": 8191,
      "é¤ł": 8192,
      ",âĢĻ": 8193,
      "èħ¹éĥ¨": 8194,
      "FLOW": 8195,
      "ĠParameter": 8196,
      "å¹Ī": 8197,
      "Router": 8198,
      "ĠSpr": 8199,
      "áĪĬ": 8200,
      "æ¬³": 8201,
      "ä¼µ": 8202,
      "ëĲĲ": 8203,
      "íģĺ": 8204,
      "çµĩ": 8205,
      "è¦ģåıĬ": 8206,
      "ì²Ł": 8207,
      "Ġrepl": 8208,
      "Pitch": 8209,
      "Ġå¤§": 8210,
      "Music": 8211,
      "íĻľ": 8212,
      "hs": 8213,
      "ç¢¦": 8214,
      "ĠĠĠĠĠĠĠĠĠĠĠ": 8215,
      "Ì²": 8216,
      "Ġdeep": 8217,
      "ä»£è°¢": 8218,
      "îĢ½": 8219,
      "åĪĨäº«": 8220,
      "æĦĿ": 8221,
      "å®ŀæĪĺ": 8222,
      "Ġpkt": 8223,
      "êİĸ": 8224,
      "åĨ¦": 8225,
      "ĠAl": 8226,
      "éĦį": 8227,
      "ĠDepartment": 8228,
      "æĮİ": 8229,
      "çŃĸçķ¥": 8230,
      "äıļ": 8231,
      "getTarget": 8232,
      "lings": 8233,
      "ìļ¸": 8234,
      "ÔĦ": 8235,
      "çĥ©": 8236,
      "å©Ĩ": 8237,
      "äº¬ä¸ľ": 8238,
      "èºħ": 8239,
      "è¡¬": 8240,
      "çļ¬": 8241,
      "Contacts": 8242,
      "GER": 8243,
      "ĠĠĠĠĠĠĠĠĊĠĠĠĠĠĠĠ": 8244,
      "à«ģ": 8245,
      "),": 8246,
      "íĻ©": 8247,
      "Attach": 8248,
      "é¤¶": 8249,
      "Ġpers": 8250,
      "parsed": 8251,
      "åĥķ": 8252,
      "Ordinal": 8253,
      "Ġaffiliates": 8254,
      "é¬´": 8255,
      "Ġscopes": 8256,
      "backslash": 8257,
      "è°¬": 8258,
      "æĶ¯æĮģ": 8259,
      "Upgrade": 8260,
      "Ġrealm": 8261,
      "íĮ°": 8262,
      "Ġcombo": 8263,
      "asInstanceOf": 8264,
      "ĠVoid": 8265,
      "GetType": 8266,
      "IntPtr": 8267,
      "ĠÐ¼": 8268,
      "QUEUE": 8269,
      "LineNumber": 8270,
      "åħ³éĶ®è¯į": 8271,
      "EMPTY": 8272,
      "getX": 8273,
      "à·ļ": 8274,
      "åĤĹ": 8275,
      "Ġextends": 8276,
      "ðŁĺº": 8277,
      "ãĦļ": 8278,
      "äº²äºº": 8279,
      "opc": 8280,
      "Ġíķ": 8281,
      "é¢°": 8282,
      "Ġvolupt": 8283,
      "é°¦": 8284,
      "IAN": 8285,
      "Mail": 8286,
      "åĺ£": 8287,
      "çĤ¹åįĬ": 8288,
      "notebook": 8289,
      "Ġbur": 8290,
      "åĴķ": 8291,
      "-{": 8292,
      "æº§": 8293,
      "Ajax": 8294,
      "êľĤ": 8295,
      "åĶ®": 8296,
      ".\")": 8297,
      "á¸ĸ": 8298,
      "shader": 8299,
      "çľģèĢĥ": 8300,
      "éĤİ": 8301,
      "îĸ¡": 8302,
      "Ġpolicy": 8303,
      "æĪ¿äº§": 8304,
      "Ġstill": 8305,
      "åĮĸè§£": 8306,
      "éĢĩ": 8307,
      "rt": 8308,
      "âĶ¯": 8309,
      "ç´ĸ": 8310,
      "setUp": 8311,
      "caret": 8312,
      "à±®": 8313,
      "à®ĩ": 8314,
      "Ġrotation": 8315,
      "Ġlbl": 8316,
      "åĳĦ": 8317,
      "â¬¡": 8318,
      "outer": 8319,
      "Php": 8320,
      "æł¹æį®": 8321,
      "âķ«": 8322,
      "âĸ²": 8323,
      "ĠRh": 8324,
      "áµİ": 8325,
      "here": 8326,
      "ĠRedirect": 8327,
      "components": 8328,
      "ã©Ļ": 8329,
      "éķĵ": 8330,
      "Ġ`${": 8331,
      "á·¿": 8332,
      "æĨŁ": 8333,
      "é»¯": 8334,
      "æŁ²": 8335,
      "éĳĹ": 8336,
      "ïĥ²": 8337,
      "ĠHorizontal": 8338,
      "é³ī": 8339,
      "Bg": 8340,
      "çĶ§": 8341,
      "é¼ĳ": 8342,
      "é¡": 8343,
      "referred": 8344,
      "æĤī": 8345,
      "é±½": 8346,
      "Ġco": 8347,
      "åĽ¾": 8348,
      "ĠparseFloat": 8349,
      "æĵ©": 8350,
      "ë¹ł": 8351,
      "éĻĴ": 8352,
      "tion": 8353,
      "rier": 8354,
      "Ġaê": 8355,
      "áĹ": 8356,
      "ĠAssembly": 8357,
      "ð¢Ń": 8358,
      "èĬ¹": 8359,
      "èĢ³æľµ": 8360,
      "ì²´": 8361,
      "ĠGod": 8362,
      "ä¼Ĺ": 8363,
      "æĦŁåıĹåĪ°": 8364,
      "æ¸®": 8365,
      "æªĺ": 8366,
      "ç§´": 8367,
      "Ú¨": 8368,
      "Bh": 8369,
      "ðŁħĿ": 8370,
      "Ġvar": 8371,
      "áĥĻ": 8372,
      "éĹ¨ç¥¨": 8373,
      "â²ł": 8374,
      "åµ¾": 8375,
      "Ġinvoke": 8376,
      "éģ®": 8377,
      "å¹±": 8378,
      "CONF": 8379,
      "Ġ<%": 8380,
      "ĠLN": 8381,
      "îłĤ": 8382,
      "âĨ¤": 8383,
      "çļĦé«ĺ": 8384,
      "ĠCalling": 8385,
      "alyt": 8386,
      "ĠNet": 8387,
      "Ġresidual": 8388,
      "``": 8389,
      "ëĬĻ": 8390,
      "Parser": 8391,
      "functions": 8392,
      "åĽĤ": 8393,
      "èĻ¤": 8394,
      "è£ª": 8395,
      "çķħéĢļ": 8396,
      "áĵĢ": 8397,
      "åĲĦçº§": 8398,
      "Simple": 8399,
      "ĠIssues": 8400,
      "Ġgoto": 8401,
      "é¾ŀ": 8402,
      "æĵ¦": 8403,
      "Ġfamiliar": 8404,
      "åĨľæĿĳ": 8405,
      "èĥ¬": 8406,
      "Good": 8407,
      "Ġ:": 8408,
      "èµŃ": 8409,
      "æ®İ": 8410,
      "é¡½": 8411,
      "...\",": 8412,
      "ç»ıè¿ĩ": 8413,
      "Used": 8414,
      "çŃĢ": 8415,
      "elo": 8416,
      "éĤ»": 8417,
      "î³ª": 8418,
      "êĪĬ": 8419,
      "ĠImplement": 8420,
      "Poll": 8421,
      "æĢĢåŃķ": 8422,
      "ç¥Ħ": 8423,
      "ê³¡": 8424,
      "ĠSC": 8425,
      "RegExp": 8426,
      "ĠM": 8427,
      "ÍŃ": 8428,
      "çµĥ": 8429,
      "æĦ¸": 8430,
      "Ġqt": 8431,
      "éĳİ": 8432,
      "æŃ¾": 8433,
      "ä³Ĵ": 8434,
      "ØŁ": 8435,
      "ã«©": 8436,
      "æ¶Īæ¯Ĵ": 8437,
      "å±ł": 8438,
      "He": 8439,
      "åĢ½": 8440,
      "çļĦåŁº": 8441,
      "ä¸ºä¸Ńå¿ĥ": 8442,
      "Spect": 8443,
      "çģ¥": 8444,
      "ä¹°åįĸ": 8445,
      "îĿ¥": 8446,
      "ĊĊĊĉ": 8447,
      "Ġ',": 8448,
      "çĥŁ": 8449,
      "èĹ°": 8450,
      "æ°Ĵ": 8451,
      "ç£ĥ": 8452,
      "ßº": 8453,
      "é¡¹": 8454,
      "ä½įçļĦ": 8455,
      "åįļ": 8456,
      "ðŁįı": 8457,
      "æĿĲè´¨": 8458,
      "è·¯åı£": 8459,
      "mathbb": 8460,
      "ðĳĲ¥": 8461,
      "Ġcron": 8462,
      "êĪį": 8463,
      "èŃ¦å¯Ł": 8464,
      "æ¡İ": 8465,
      "Å¡": 8466,
      "åī»": 8467,
      "\"/": 8468,
      "è©ļ": 8469,
      "è¿ĲçĶ¨": 8470,
      "å½¾": 8471,
      "åĥį": 8472,
      "ä½±": 8473,
      "Ġsol": 8474,
      "âĬ¢": 8475,
      "deserialize": 8476,
      "å¦Ķ": 8477,
      "je": 8478,
      "Ġsupp": 8479,
      "ĠNov": 8480,
      "éĤµ": 8481,
      "æ´»çĿĢ": 8482,
      "å«Ī": 8483,
      "îĵ°": 8484,
      "è¦Ĥ": 8485,
      "ðŁĺļ": 8486,
      "å±Ĭåħ¨åĽ½": 8487,
      "èŁ³": 8488,
      "àłµ": 8489,
      "æĵ·": 8490,
      "ĠSec": 8491,
      "åľ°åĮºçļĦ": 8492,
      "æĲĳ": 8493,
      "Ġwith": 8494,
      "ä¸ĢåĪĨ": 8495,
      "TOT": 8496,
      "é¥Ĭ": 8497,
      "Ġseem": 8498,
      "æĥ¾": 8499,
      "è§Ń": 8500,
      "çĸ¼": 8501,
      "ôĢĨ³": 8502,
      "oop": 8503,
      "Retrieve": 8504,
      "ïĨĶ": 8505,
      "languages": 8506,
      "è£į": 8507,
      "Ġray": 8508,
      "áľĶ": 8509,
      "rows": 8510,
      "ðŁķĴ": 8511,
      "Ġcipher": 8512,
      "ïĥī": 8513,
      "Nonnull": 8514,
      "munication": 8515,
      "Ùĵ": 8516,
      "ìĽį": 8517,
      "Ġremoves": 8518,
      "imap": 8519,
      "Gem": 8520,
      "ëµľ": 8521,
      "çĨ¶": 8522,
      "è¨ģ": 8523,
      "êĪ´": 8524,
      "à¾©": 8525,
      "é´¼": 8526,
      "éķ¿å¤§": 8527,
      "ðĿ": 8528,
      "represent": 8529,
      "à¾ľ": 8530,
      "socket": 8531,
      "Ġå¹´": 8532,
      "éĳĨ": 8533,
      "ïĢĹ": 8534,
      "é¢ħ": 8535,
      "îĤ": 8536,
      "ä¸ĭæ¬¡": 8537,
      "setString": 8538,
      "ang": 8539,
      "n": 8540,
      "ĠTP": 8541,
      "getBlock": 8542,
      "weibo": 8543,
      "ðŁ§Ģ": 8544,
      "á½ł": 8545,
      "à¹Ĺ": 8546,
      "ëĦ£": 8547,
      "ptions": 8548,
      ",,,": 8549,
      "åĶ¦": 8550,
      "è£ĸ": 8551,
      "îĿ¡": 8552,
      "é¾Ĵ": 8553,
      "èīĨ": 8554,
      "ä¹ĭæĹ¶": 8555,
      "æ¶īæ¡Ī": 8556,
      "=(": 8557,
      "Checksum": 8558,
      "Ġ`\"": 8559,
      "ðĳģĭ": 8560,
      "Ġscene": 8561,
      "è·Ļ": 8562,
      "pe": 8563,
      "Ġ[]);": 8564,
      "è§¢": 8565,
      "é°Ļ": 8566,
      "è«º": 8567,
      "â¤¥": 8568,
      "ÎĪ": 8569,
      "èĴĺ": 8570,
      "à¬¹": 8571,
      "Ġ*/,": 8572,
      "ĠGenInst": 8573,
      "æ¢Ĩ": 8574,
      "áģ¤": 8575,
      "èĨº": 8576,
      "èĿ¨": 8577,
      "ĠÐ¸Ð·": 8578,
      "=\"%": 8579,
      "dopt": 8580,
      "Vl": 8581,
      "|{": 8582,
      "BV": 8583,
      "ĠJo": 8584,
      ">:]<": 8585,
      "å±¦": 8586,
      "æ°ĳå·¥": 8587,
      "áī½": 8588,
      ".'": 8589,
      "æ»¤": 8590,
      "ä¼º": 8591,
      "ÜĢ": 8592,
      "éłĻ": 8593,
      "ïĮ·": 8594,
      "Memory": 8595,
      "ï¿³": 8596,
      "Table": 8597,
      "æµĹ": 8598,
      "BoundingBox": 8599,
      "îĽĻ": 8600,
      "Only": 8601,
      "âĬĢ": 8602,
      "åº§æ¤ħ": 8603,
      "=\"@": 8604,
      "å¼ºè°ĥ": 8605,
      "eef": 8606,
      "éĲ¾": 8607,
      "Ġvisible": 8608,
      "éµµ": 8609,
      "åı¶": 8610,
      "ç¼ĸ": 8611,
      "è¬¶": 8612,
      "Twitter": 8613,
      "é·¡": 8614,
      "èĬ¿": 8615,
      "é¸¤": 8616,
      "æīįåıĳ": 8617,
      "Ljava": 8618,
      "æĹĮ": 8619,
      "èĪ´": 8620,
      "Ġ_$": 8621,
      "á¾¦": 8622,
      "Ü¬": 8623,
      "éĩĲ": 8624,
      "æµĵ": 8625,
      "è¥°": 8626,
      "cimal": 8627,
      "Succeeded": 8628,
      "Ġmechanism": 8629,
      "ÑĶ": 8630,
      "Ûº": 8631,
      "çĬģ": 8632,
      "ïĥµ": 8633,
      "ç§ĺä¹¦éķ¿": 8634,
      "â±¯": 8635,
      "åīµ": 8636,
      "ç¼´çº³": 8637,
      "ç¬¬ä¸Ģ": 8638,
      "IK": 8639,
      "çĺŁ": 8640,
      "æľīä½ł": 8641,
      "å·²ç»ıæĺ¯": 8642,
      "viding": 8643,
      "à®¯": 8644,
      "Hdr": 8645,
      "Ġexchange": 8646,
      "Cpu": 8647,
      "Song": 8648,
      "ä¸įå®ľ": 8649,
      "ç¶Ķ": 8650,
      "xlsx": 8651,
      "Ġnach": 8652,
      "çĤ½": 8653,
      "ĠPrepare": 8654,
      "publication": 8655,
      "å½Ń": 8656,
      "Orientation": 8657,
      "åĽĹ": 8658,
      "ĠUtils": 8659,
      "á¼Ģ": 8660,
      "asket": 8661,
      "ðĸ¤Ĳ": 8662,
      "Ġ{});": 8663,
      "çĥ½": 8664,
      "éĴ¥": 8665,
      "Ġä½¿çĶ¨": 8666,
      "Ýĵ": 8667,
      "docker": 8668,
      "ç«ª": 8669,
      "ulong": 8670,
      "æ¦Ĩ": 8671,
      "Ġlearned": 8672,
      "åľ¨åĽ½": 8673,
      "Ġign": 8674,
      "<(": 8675,
      "èĦ½": 8676,
      "îµº": 8677,
      "éĤĢ": 8678,
      "ä¾Ĺ": 8679,
      "Ġ×Ļ": 8680,
      "filename": 8681,
      "é²ł": 8682,
      "è°ĭåĪĴ": 8683,
      "åĨłåĨĽ": 8684,
      "å½ĵçĦ¶": 8685,
      "EndOf": 8686,
      "UNKNOWN": 8687,
      "åľ¨äºİ": 8688,
      "æĨ©": 8689,
      "åĨı": 8690,
      "ĠHa": 8691,
      "çĪ²": 8692,
      "scal": 8693,
      "moj": 8694,
      "ĠâĶĶ": 8695,
      "ctrine": 8696,
      "create": 8697,
      "èĬĥ": 8698,
      "Ġboxes": 8699,
      "å«ĸ": 8700,
      "é¬ı": 8701,
      "æĺ¦": 8702,
      "Ġmajor": 8703,
      "Ġeffective": 8704,
      "çŃīæĸ¹": 8705,
      "ðŁ¥§": 8706,
      "gister": 8707,
      "ĠCRE": 8708,
      "çļĦåħ¶": 8709,
      "ĠPL": 8710,
      "ĠJava": 8711,
      "é¥Ģ": 8712,
      "ó°": 8713,
      "æĸŀ": 8714,
      "ainter": 8715,
      "Ġë¹Ħ": 8716,
      "ĠWA": 8717,
      "çª¯": 8718,
      "èı»": 8719,
      "çĵī": 8720,
      "ðŁĴĥ": 8721,
      "æ®ľ": 8722,
      "æļ¡": 8723,
      "ĠĊĊ": 8724,
      "äº²èĩª": 8725,
      "é¢ĭ": 8726,
      "BOOLEAN": 8727,
      "Ġshut": 8728,
      "Ġrec": 8729,
      "åĢ¼ç¨İ": 8730,
      "ĠìķĦ": 8731,
      "æ¸¯æ¾³": 8732,
      "Du": 8733,
      "ç±Ĩ": 8734,
      "âĩĪ": 8735,
      "ç°ļ": 8736,
      "traj": 8737,
      "BRANCH": 8738,
      "phrase": 8739,
      "è½½ä½ĵ": 8740,
      "////////////////": 8741,
      "ony": 8742,
      "ç§ĸ": 8743,
      "éľĸ": 8744,
      "è°Ĺ": 8745,
      "strap": 8746,
      "éłĽ": 8747,
      "å¸Ĥéķ¿": 8748,
      "èĵ»": 8749,
      "è®¨åİĮ": 8750,
      "å®ŀæĸ½": 8751,
      "åĹ³": 8752,
      "éıĴ": 8753,
      "îįħ": 8754,
      "notifications": 8755,
      "ê¹İ": 8756,
      "Ġadicion": 8757,
      "SCR": 8758,
      ":*": 8759,
      "åĨĺ": 8760,
      "Ġseek": 8761,
      "âĻ¨": 8762,
      "Ads": 8763,
      "Ġ([#": 8764,
      "=\"{": 8765,
      "èīĵ": 8766,
      "Ġoc": 8767,
      "ĠSty": 8768,
      "éĿ": 8769,
      "Ç¿": 8770,
      "ðŁķĳ": 8771,
      "jah": 8772,
      "æĥ³è¦ģ": 8773,
      "enc": 8774,
      "¬": 8775,
      "Env": 8776,
      "èĸ¶": 8777,
      "DED": 8778,
      "ĠASCII": 8779,
      "const": 8780,
      "ĠTree": 8781,
      "ç¹į": 8782,
      "ä½ıå®¿": 8783,
      ",\"": 8784,
      "Space": 8785,
      "Ġgrab": 8786,
      "IPV": 8787,
      "Building": 8788,
      "æ¢ĭ": 8789,
      "æ°ĳéĹ´": 8790,
      "ata": 8791,
      "áĵĹ": 8792,
      "riend": 8793,
      "ĠClean": 8794,
      "à³§": 8795,
      "é®¤": 8796,
      "ä¸įä»£": 8797,
      "çĮ¸": 8798,
      "æµĽ": 8799,
      "æ¦ģ": 8800,
      "á¥·": 8801,
      "éª§": 8802,
      "âĢ«": 8803,
      "æľĢåĪĿ": 8804,
      "èºķ": 8805,
      "åĲ¤": 8806,
      "Ġse": 8807,
      "Õ·": 8808,
      "á¯²": 8809,
      "Deep": 8810,
      ">@": 8811,
      "formation": 8812,
      "ÒĿ": 8813,
      "ĠØª": 8814,
      "installer": 8815,
      "è®ºæĸĩ": 8816,
      "(_,": 8817,
      "å¤©åľ°": 8818,
      "Players": 8819,
      "à¿ģ": 8820,
      "Ġvendor": 8821,
      "á¾į": 8822,
      "åıĳæī¬": 8823,
      "ä¸Ĭæľī": 8824,
      "lection": 8825,
      "ĠAtt": 8826,
      "åĮ·": 8827,
      "èºį": 8828,
      "æĦŁè°¢": 8829,
      "éł¢": 8830,
      "startswith": 8831,
      "ĠĠĠĠĠĠĠĠĠĠĠĠĠĠĠĠĠĠĠĠĠĠĠĠĠĠĠĠĠĠĠĠĠĠĠĠĠĠĠĠĠĠĠĠĠĠ": 8832,
      "ãľł": 8833,
      "ìĳ": 8834,
      "ating": 8835,
      "å«Ł": 8836,
      "ĠWrap": 8837,
      "Ġ*(": 8838,
      "devel": 8839,
      "Yii": 8840,
      "åłŃ": 8841,
      "æķĪæŀľ": 8842,
      "ĠSoftware": 8843,
      "recip": 8844,
      "åĹµ": 8845,
      "é«º": 8846,
      "éĸĲ": 8847,
      "èĸ«": 8848,
      "batches": 8849,
      "EML": 8850,
      "á¹ł": 8851,
      "leted": 8852,
      "èĮ§": 8853,
      "pta": 8854,
      "²": 8855,
      "éĿ£": 8856,
      "ä¼ľ": 8857,
      "îĤ¬": 8858,
      "ðŁ¥²": 8859,
      "\"}": 8860,
      "df": 8861,
      "Ask": 8862,
      "éµ": 8863,
      "sche": 8864,
      "èĪ¯": 8865,
      "Ġsessions": 8866,
      "åĻ¨å®ĺ": 8867,
      "GY": 8868,
      "ç¢¹": 8869,
      "æŀ¥": 8870,
      "ãŁ·": 8871,
      "ä»¯": 8872,
      "ono": 8873,
      "PROCESS": 8874,
      "Aggressive": 8875,
      "åŁĿ": 8876,
      "æĴ¾": 8877,
      "åĥĦ": 8878,
      "æ«®": 8879,
      "ay": 8880,
      "Ġì§Ģ": 8881,
      "îĦİ": 8882,
      "äĢ²": 8883,
      "åħļç»Ħ": 8884,
      "è§Ħå®ļ": 8885,
      "îĪĻ": 8886,
      "Ġcomposite": 8887,
      "è¦ķ": 8888,
      "ìĮį": 8889,
      "áĶĳ": 8890,
      "æĺ¯ä»¥": 8891,
      "lient": 8892,
      "çŀ©": 8893,
      "åģķ": 8894,
      "ĠJu": 8895,
      "éĽħ": 8896,
      "timezone": 8897,
      "Ġcomes": 8898,
      "tracks": 8899,
      "éĴ»": 8900,
      "RAD": 8901,
      "î¤Ģ": 8902,
      "ðŁ¦½": 8903,
      "åµ§": 8904,
      "adm": 8905,
      "îĹ": 8906,
      "æ¡Ĳ": 8907,
      "Ä±": 8908,
      "âĺĸ": 8909,
      "èĢĩ": 8910,
      "æ¹«": 8911,
      "ç¸Ķ": 8912,
      "binary": 8913,
      "çľī": 8914,
      "èģĩ": 8915,
      "âĭ§": 8916,
      "ä¸Ģå¥Ĺ": 8917,
      "Ġday": 8918,
      "ä¹Ī": 8919,
      "tutorials": 8920,
      "éªĦ": 8921,
      "îģľ": 8922,
      "âłŁ": 8923,
      "ĠfontWeight": 8924,
      "čĊĉĉĉĉĉĉĉĉĉ": 8925,
      "SEND": 8926,
      "à¢Ŀ": 8927,
      "é¦ŀ": 8928,
      "ĠCONFIG": 8929,
      "ä¸Ńå°ıåŃ¦": 8930,
      "ç¼Ŀ": 8931,
      "çĭĵ": 8932,
      "å¯¹äºĨ": 8933,
      "éĢĭ": 8934,
      "è¢»": 8935,
      "à¾Ĺ": 8936,
      "ê°": 8937,
      "æĺħ": 8938,
      "ection": 8939,
      "ĠpostCellId": 8940,
      "Cn": 8941,
      "ä¿²": 8942,
      "âĤ«": 8943,
      "ç®ĵ": 8944,
      "ãĹŃ": 8945,
      "ĠMouse": 8946,
      "ĠPor": 8947,
      "ê¦«": 8948,
      "ilo": 8949,
      "à©Ķ": 8950,
      "çħĢ": 8951,
      "ìĭ¤": 8952,
      "éľī": 8953,
      "asure": 8954,
      "ALIST": 8955,
      "ĠExtract": 8956,
      "ĠOp": 8957,
      "î¦": 8958,
      "æĢĭ": 8959,
      "arehouse": 8960,
      "clf": 8961,
      "isting": 8962,
      "%%%%%%%%%%%%%%%%%%%%%%%%%%%%%%%%": 8963,
      "é§İ": 8964,
      "exporter": 8965,
      "é±£": 8966,
      "xc": 8967,
      "Soap": 8968,
      "Ġsensitive": 8969,
      "Ġnatural": 8970,
      "ïĴĸ": 8971,
      "ç£Ń": 8972,
      "å¹´åº¦": 8973,
      "åħ¨è¦ĨçĽĸ": 8974,
      "æ¯ķ": 8975,
      "ãģķãĤĮãĤĭ": 8976,
      "éľĿ": 8977,
      "lease": 8978,
      "dis": 8979,
      "ã¨ĸ": 8980,
      "èľ®": 8981,
      "èļĳ": 8982,
      "Êİ": 8983,
      "ĠĊĉĉĉ": 8984,
      "åº®": 8985,
      "éĹ¶": 8986,
      "æįĩ": 8987,
      "ĠContact": 8988,
      "SWIG": 8989,
      "åĬĢ": 8990,
      "ðŁİļ": 8991,
      "è¥į": 8992,
      "Im": 8993,
      "çļĦéĤ£": 8994,
      "assert": 8995,
      "åº·çłģ": 8996,
      "secondary": 8997,
      "èĶµ": 8998,
      "oft": 8999,
      "Inputs": 9000,
      "çĩ£": 9001,
      "ĠRemoved": 9002,
      "Classifier": 9003,
      "îīĻ": 9004,
      "âĸ¶": 9005,
      "Ġdell": 9006,
      "åĤĩ": 9007,
      "ïĺ¨": 9008,
      "áľ": 9009,
      "ä¸įç®¡": 9010,
      "TypeOf": 9011,
      "çĢª": 9012,
      "áĭ²": 9013,
      "ïģ¼": 9014,
      "MPI": 9015,
      "Ġpic": 9016,
      "ises": 9017,
      "å¤´éĥ¨": 9018,
      "å£¨": 9019,
      "ä»Ĭå¤©çļĦ": 9020,
      "onic": 9021,
      "á¡ł": 9022,
      "æ¼ī": 9023,
      "ãķĬ": 9024,
      "ç¨®": 9025,
      "èĦĸåŃĲ": 9026,
      "Ġdownload": 9027,
      "ok": 9028,
      "ĠWork": 9029,
      "ĠToast": 9030,
      "Die": 9031,
      "ç·ģ": 9032,
      "propag": 9033,
      "ëĬ¥": 9034,
      "æģĶ": 9035,
      "æ°İ": 9036,
      "åłµå¡ŀ": 9037,
      "_'": 9038,
      "ïĩ¸": 9039,
      "ĠChart": 9040,
      "notation": 9041,
      "QP": 9042,
      "åŀº": 9043,
      "Hint": 9044,
      "éŃµ": 9045,
      "âĻĢ": 9046,
      "angerous": 9047,
      "Ġwon": 9048,
      "åĢ®": 9049,
      "è¾±": 9050,
      "interpret": 9051,
      "æľ¬": 9052,
      "review": 9053,
      "Exchange": 9054,
      "ì²ł": 9055,
      "Ġarr": 9056,
      "¡": 9057,
      "ĠCOOKIE": 9058,
      "Ġdim": 9059,
      "ĠUpdates": 9060,
      "ÚĴ": 9061,
      "èĨĮ": 9062,
      "Ġtodos": 9063,
      "rint": 9064,
      "åĩŀ": 9065,
      "é·£": 9066,
      "Writ": 9067,
      "ç¹ĳ": 9068,
      "::__": 9069,
      "èĲ¥ä¸ļ": 9070,
      "OME": 9071,
      "IT": 9072,
      "â¬·": 9073,
      "OutOf": 9074,
      "IID": 9075,
      "ìºī": 9076,
      "æĽĺ": 9077,
      "îł°": 9078,
      "ines": 9079,
      "àºĸ": 9080,
      "ä¸Ģå¾ĭ": 9081,
      "çĨĦ": 9082,
      "éķĻ": 9083,
      "çŀ½": 9084,
      "-----------": 9085,
      "æĹ«": 9086,
      "ðŁĻİ": 9087,
      "ç¥¿": 9088,
      "optimizer": 9089,
      "éĻ¤éĿŀ": 9090,
      "RESS": 9091,
      "DUP": 9092,
      "ãĥ§": 9093,
      "êĥĨ": 9094,
      "ç»ŃèĪª": 9095,
      "ëį§": 9096,
      "solve": 9097,
      "éµ§": 9098,
      "afka": 9099,
      "newBuilder": 9100,
      "hdfs": 9101,
      "kFont": 9102,
      "ê¯¨": 9103,
      "æĶ¯æı´": 9104,
      "àµĢ": 9105,
      "onym": 9106,
      "çĽľ": 9107,
      "îľĴ": 9108,
      "åİĥ": 9109,
      "ParseException": 9110,
      "Exporter": 9111,
      "Ġability": 9112,
      "æĽį": 9113,
      "å¢Ħ": 9114,
      "MAN": 9115,
      "æ³¾": 9116,
      "ĠUTC": 9117,
      "linux": 9118,
      "ê¿°": 9119,
      "äıĤ": 9120,
      "æ·ĳ": 9121,
      "êīł": 9122,
      "èķ®": 9123,
      "ç®¶": 9124,
      "ì¸ł": 9125,
      "ĠWRITE": 9126,
      "NameLink": 9127,
      "ĠUnique": 9128,
      "Ä¯": 9129,
      "ç¦": 9130,
      "å®³æĢķ": 9131,
      "çŃīæĥħ": 9132,
      "Ġskip": 9133,
      "sav": 9134,
      "è´Ńä¹°": 9135,
      "å¬¨": 9136,
      "çĻĶ": 9137,
      "Ġauto": 9138,
      "MBOL": 9139,
      "tan": 9140,
      "ðĴįª": 9141,
      "HEAD": 9142,
      "Center": 9143,
      "æī¢": 9144,
      "ðŁľ": 9145,
      "umin": 9146,
      "åĬī": 9147,
      "â¦¾": 9148,
      "èĶŀ": 9149,
      "ÎĨ": 9150,
      "æĥ³æ³ķ": 9151,
      "ĠREFERENCES": 9152,
      "izado": 9153,
      "KEY": 9154,
      "é´Ļ": 9155,
      "render": 9156,
      "deprecated": 9157,
      "áĬł": 9158,
      "Ġimprove": 9159,
      "ðŁĵĭ": 9160,
      "èĪ": 9161,
      "cone": 9162,
      "é£ĸ": 9163,
      "ĠĊĉĉĉĉĉ": 9164,
      "à´§": 9165,
      "áĢĶ": 9166,
      "é§ħ": 9167,
      "å©į": 9168,
      "æģ¯": 9169,
      "Ġcorre": 9170,
      "ç´µ": 9171,
      "åĹĨ": 9172,
      "Ġ\\'": 9173,
      "æ²Ĥ": 9174,
      "äļ°": 9175,
      "ãĽĥ": 9176,
      "Divider": 9177,
      "Ġsolver": 9178,
      "yw": 9179,
      "æ±Ĳ": 9180,
      "startsWith": 9181,
      "ĠAdvanced": 9182,
      "andle": 9183,
      "ng": 9184,
      "Ġman": 9185,
      "é°Ł": 9186,
      "åĨĲ": 9187,
      "å¹³åı°": 9188,
      "ï¿½ï¿½": 9189,
      "ĠhashCode": 9190,
      "Magic": 9191,
      "NAMESPACE": 9192,
      "Å": 9193,
      "Ġrefs": 9194,
      "åĢĨ": 9195,
      "åģĮ": 9196,
      "lean": 9197,
      "ploy": 9198,
      "ä¾Ħ": 9199,
      "idiomas": 9200,
      "ìķį": 9201,
      "îĮŃ": 9202,
      "ĠOptions": 9203,
      "SCALE": 9204,
      "æĹ¥å¿Ĺ": 9205,
      "ðŁ¥Ħ": 9206,
      "æł¦": 9207,
      "ðŁ§¢": 9208,
      "Ġcrop": 9209,
      ":\\\"": 9210,
      "áī³": 9211,
      "Ġapplicable": 9212,
      "èĽĭç³ķ": 9213,
      "Hook": 9214,
      "eder": 9215,
      "æħı": 9216,
      "Ġbeginning": 9217,
      "Mg": 9218,
      "ìį¬": 9219,
      "æ¢ŀ": 9220,
      "ä¼ļè¢«": 9221,
      "DRAW": 9222,
      "Expiration": 9223,
      "nology": 9224,
      "Ġfragments": 9225,
      "êĵĺ": 9226,
      "è§£éĩĬ": 9227,
      "methodName": 9228,
      "lict": 9229,
      "();\");": 9230,
      "è¯´": 9231,
      "æĥĶ": 9232,
      "æįĵ": 9233,
      "éģ¾": 9234,
      "êİ®": 9235,
      "æĢ»ä¹ĭ": 9236,
      "æī¿åıĹ": 9237,
      "à¨Ŀ": 9238,
      "é¼²": 9239,
      "Ġwrote": 9240,
      "éĶ¿": 9241,
      "åģľçĶµ": 9242,
      "å´©": 9243,
      "failed": 9244,
      "Ġconstr": 9245,
      "æ£Ĺ": 9246,
      "DECREF": 9247,
      "Ġdecorator": 9248,
      "éĨĪ": 9249,
      "îį©": 9250,
      "ther": 9251,
      "é·ĺ": 9252,
      "æīĵå¥½": 9253,
      "å¸ĤéĿ¢ä¸Ĭ": 9254,
      "},": 9255,
      "æ¶¼": 9256,
      "buntu": 9257,
      "çĺ¶": 9258,
      "repeated": 9259,
      "éĸļ": 9260,
      "åĩºçİ°çļĦ": 9261,
      "agn": 9262,
      "æĻ®æŁ¥": 9263,
      "éĴĮ": 9264,
      "ĠPair": 9265,
      "Ġboolean": 9266,
      "ĠTrying": 9267,
      "ïı³": 9268,
      "Ġinverse": 9269,
      "èįº": 9270,
      "ä¸ĢæŃ¥": 9271,
      "áŀļ": 9272,
      "definition": 9273,
      "Ġconflict": 9274,
      "ĊĠĊĠĠĠ": 9275,
      "é¾Ķ": 9276,
      "SCRIP": 9277,
      "è«§": 9278,
      "î©Ħ": 9279,
      "ì¹µ": 9280,
      "rest": 9281,
      "ĠDEF": 9282,
      "éŃĵ": 9283,
      "æĪĳéĥ½": 9284,
      "á¸ł": 9285,
      "é¡§": 9286,
      "èĮĩ": 9287,
      "ç¤¼çī©": 9288,
      "Ġdropped": 9289,
      "èĳº": 9290,
      "ä¸Ģé¢Ĺ": 9291,
      "è®¾å¤ĩ": 9292,
      "æ½ľåĬĽ": 9293,
      "á·ĩ": 9294,
      "à²³": 9295,
      "çļĦåĲĮ": 9296,
      "å¾Ģ": 9297,
      "AI": 9298,
      "Ġfold": 9299,
      "am": 9300,
      "âĥŀ": 9301,
      "è³Ľ": 9302,
      "è±®": 9303,
      "à¸®": 9304,
      "ç·½": 9305,
      "é¬¯": 9306,
      "èµĽ": 9307,
      "ALI": 9308,
      "âĬ³": 9309,
      ">):": 9310,
      "ä»ĭ": 9311,
      "åı©": 9312,
      "ãĤ¯ãĥª": 9313,
      "é»¦": 9314,
      "elm": 9315,
      "reflection": 9316,
      "ĠmethodName": 9317,
      "éĺĦ": 9318,
      "Ê½": 9319,
      "é©¢": 9320,
      "éº¼": 9321,
      "áĬķ": 9322,
      "çĶ½": 9323,
      "osition": 9324,
      "åĻĤ": 9325,
      "ïİ¥": 9326,
      "Ġalter": 9327,
      "getFirst": 9328,
      "}));": 9329,
      "RestController": 9330,
      "æı°": 9331,
      "éĬĲ": 9332,
      "filePath": 9333,
      "ĠCondition": 9334,
      "æĪĺ": 9335,
      "éªĹåŃĲ": 9336,
      "å¾½çľģ": 9337,
      "åĹ¬": 9338,
      "è¨ı": 9339,
      "Ġtypeof": 9340,
      "áįĮ": 9341,
      "Region": 9342,
      "ustr": 9343,
      "èŀı": 9344,
      "ç¾Ĭ": 9345,
      "ĠAf": 9346,
      "Ðĸ": 9347,
      "çŁĭ": 9348,
      "ench": 9349,
      "Ledger": 9350,
      "sp": 9351,
      "argo": 9352,
      "æ°´": 9353,
      "æĴį": 9354,
      "ï¼īãĢĤ": 9355,
      "]\"": 9356,
      "mesh": 9357,
      "æģ®": 9358,
      "Ġarrow": 9359,
      "Ġsom": 9360,
      ">,": 9361,
      "ym": 9362,
      "åĹģ": 9363,
      "æĶ¶åĪ°": 9364,
      "jvm": 9365,
      "éĥı": 9366,
      "äĢ®": 9367,
      "ĠClock": 9368,
      "æħĨ": 9369,
      "å®¶åºŃ": 9370,
      "é±Ĥ": 9371,
      "positor": 9372,
      "Ġguarante": 9373,
      "æ¿®": 9374,
      "é²¨": 9375,
      "æ¢¦æĥ³": 9376,
      "à§Ĺ": 9377,
      "ĠLine": 9378,
      "ÑĢÐ¾": 9379,
      "êģĸ": 9380,
      "îĳ¥": 9381,
      "Ġbackground": 9382,
      "æ°¸": 9383,
      "ĠKn": 9384,
      "'d": 9385,
      "atest": 9386,
      "tre": 9387,
      "Interface": 9388,
      "à¿Ĩ": 9389,
      "åı¯èĥ½ä¼ļ": 9390,
      "¹": 9391,
      "ìľĮ": 9392,
      "arak": 9393,
      "é¦ı": 9394,
      "hip": 9395,
      "ĠDAMAGE": 9396,
      "Ġparticles": 9397,
      "Ġç¼ĸè¾ĳ": 9398,
      "ä»¥ä¸ĬçļĦ": 9399,
      "Handling": 9400,
      "éŀļ": 9401,
      "tot": 9402,
      "å¥Ķ": 9403,
      "Ġawk": 9404,
      "è©Ģ": 9405,
      "çħī": 9406,
      "é³ħ": 9407,
      "íĮ¡": 9408,
      "êĬľ": 9409,
      "Ġ^=": 9410,
      "åĲĨ": 9411,
      "çħ·": 9412,
      "âıª": 9413,
      "Ġrespond": 9414,
      "è¢¬": 9415,
      "âĹŀ": 9416,
      "ìħª": 9417,
      "und": 9418,
      "registry": 9419,
      "Ġmetrics": 9420,
      "MISSION": 9421,
      "ðŁĩª": 9422,
      "ler": 9423,
      "å¿ħ": 9424,
      "à¶ľ": 9425,
      "åŁĴ": 9426,
      "PR": 9427,
      "åªħ": 9428,
      "Óĥ": 9429,
      "Ġi": 9430,
      "act": 9431,
      "áħ¤": 9432,
      "ðĵĢĬ": 9433,
      "éĽ¹": 9434,
      "à°³": 9435,
      "ïĹ": 9436,
      "æ¾ķ": 9437,
      "shift": 9438,
      "åķľ": 9439,
      "æ¯ıæĹ¥": 9440,
      "êİ¹": 9441,
      "âİ¹": 9442,
      "Please": 9443,
      "rim": 9444,
      "Clients": 9445,
      "ïĮĻ": 9446,
      "nic": 9447,
      "ðŁĮĹ": 9448,
      "ÉĴ": 9449,
      "è®ºæĺ¯": 9450,
      "ĠDe": 9451,
      "åıĹ": 9452,
      "cargo": 9453,
      "éĬħ": 9454,
      "bernate": 9455,
      "é¯·": 9456,
      "tooltip": 9457,
      "lad": 9458,
      "æĿ£": 9459,
      "Ġ\"<": 9460,
      "Ġbeen": 9461,
      "lesson": 9462,
      "éĮĺ": 9463,
      "ïĮĬ": 9464,
      "Ç»": 9465,
      "ä¹Łå°±": 9466,
      "æĸĩåĮĸçļĦ": 9467,
      "éŁ³ä¹Ĳ": 9468,
      "åįĿ": 9469,
      "Xml": 9470,
      "ì¸µ": 9471,
      "Ġprocess": 9472,
      "OrCreate": 9473,
      "engine": 9474,
      "rp": 9475,
      "ACHE": 9476,
      "dif": 9477,
      "å¤ªå¤ª": 9478,
      "Ġretain": 9479,
      "CSharp": 9480,
      "å¾Ĺä¸Ĭ": 9481,
      "Ġnur": 9482,
      "åħĦ": 9483,
      "Predicate": 9484,
      "×ĩ": 9485,
      "ðĵĨŀ": 9486,
      "è¥¥": 9487,
      "ĠTermin": 9488,
      "ĠYes": 9489,
      "áħİ": 9490,
      "éģĺ": 9491,
      "made": 9492,
      "æĹ¢æľī": 9493,
      "îĵĢ": 9494,
      "æ²Į": 9495,
      "ä¸Ńéĥ¨": 9496,
      "lbl": 9497,
      "è¢Ń": 9498,
      "ToOne": 9499,
      "åĨŀ": 9500,
      "é«ĺéĵģ": 9501,
      "è¸§": 9502,
      "å¾ģç¨ĭ": 9503,
      "å¤ªåİŁ": 9504,
      "éĥĥ": 9505,
      "Ġmodification": 9506,
      "çĨ®": 9507,
      "åĢĭ": 9508,
      "Ġcancel": 9509,
      "çĻº": 9510,
      "ÎŃ": 9511,
      "ĠSt": 9512,
      "ĠXL": 9513,
      "ê²Ł": 9514,
      "\\\"]": 9515,
      "ç£ĳ": 9516,
      "Cached": 9517,
      "Ġstrategy": 9518,
      "áĽ¦": 9519,
      "éĺŀ": 9520,
      "î¤¢": 9521,
      "rans": 9522,
      "Ġrounded": 9523,
      "pt": 9524,
      ">>();": 9525,
      "èĲĽ": 9526,
      "state": 9527,
      "Reader": 9528,
      "xabab": 9529,
      "àªł": 9530,
      "truth": 9531,
      "áĽĪ": 9532,
      "ilio": 9533,
      "song": 9534,
      "Ò": 9535,
      "é£¯": 9536,
      "ALISTP": 9537,
      "Ġaavsop": 9538,
      "AH": 9539,
      "')).": 9540,
      "death": 9541,
      "æ¡µ": 9542,
      "Ġwhose": 9543,
      "åĴĸ": 9544,
      "ĠINTO": 9545,
      "Ġincre": 9546,
      "åİĳ": 9547,
      "æ¶ħ": 9548,
      "ì´ī": 9549,
      "ðŁĳľ": 9550,
      "jd": 9551,
      "ĠSubst": 9552,
      "details": 9553,
      "čĊĠĠĠĠčĊĠĠĠ": 9554,
      "Facebook": 9555,
      "åĬ¡éĻ¢": 9556,
      "ĠDataSource": 9557,
      "î¹": 9558,
      "lasthandoff": 9559,
      "èī¥": 9560,
      "çĵ¶": 9561,
      "æ¨Ń": 9562,
      "åĸľæ¬¢": 9563,
      "åħ³èĬĤ": 9564,
      "ä¸Ģæ¬¾": 9565,
      "çº¦å®ļ": 9566,
      "éħĽ": 9567,
      "Ġfd": 9568,
      "ÈĦ": 9569,
      "åĽ½æ°ĳ": 9570,
      "æ§Ŀ": 9571,
      "å¥¼": 9572,
      "argar": 9573,
      "ä¸įåĨį": 9574,
      "ä½Ĩä»ĸ": 9575,
      "jection": 9576,
      "ĠUpdate": 9577,
      "Ġtrap": 9578,
      "Ġmight": 9579,
      "æ«´": 9580,
      "âĭ": 9581,
      "æĤĦ": 9582,
      "ç¾İåĳ³": 9583,
      "æĻ®": 9584,
      "ç´Ŀ": 9585,
      "Ġsafecall": 9586,
      "çª¡": 9587,
      "Discard": 9588,
      "Î£": 9589,
      "ëŁ": 9590,
      "å¥º": 9591,
      "bad": 9592,
      "áº¬": 9593,
      "pypi": 9594,
      "ç¶ĺ": 9595,
      "ÑĢÐ¸": 9596,
      "áĪ«": 9597,
      "ç¢±": 9598,
      "ë³¼": 9599,
      "Ġcategories": 9600,
      "éĢ¿": 9601,
      "Iterable": 9602,
      "æĶ«": 9603,
      "æĨĿ": 9604,
      "ĊĠĠĠĠĊĠ": 9605,
      "ãĹ³": 9606,
      "Ð¼Ð¾": 9607,
      "å¯¹æĬĹ": 9608,
      "æĸ¹": 9609,
      "Ì±": 9610,
      "æ²¿": 9611,
      "ðŁ«ĸ": 9612,
      "è°ĥçłĶ": 9613,
      "çģ¾": 9614,
      "æĿĮ": 9615,
      "åĪĿæľŁ": 9616,
      "ìĿ": 9617,
      "Esc": 9618,
      "search": 9619,
      "mpty": 9620,
      "àªĽ": 9621,
      "ëµµ": 9622,
      "ÄĦ": 9623,
      "NR": 9624,
[...]
